{
  "version": "1.0",
  "truncation": null,
  "padding": null,
  "added_tokens": [
    {
      "id": 0,
      "content": "<unk>",
      "single_word": false,
      "lstrip": false,
      "rstrip": false,
      "normalized": false,
      "special": true
    },
    {
      "id": 1,
      "content": "<s>",
      "single_word": false,
      "lstrip": false,
      "rstrip": false,
      "normalized": false,
      "special": true
    },
    {
      "id": 2,
      "content": "</s>",
      "single_word": false,
      "lstrip": false,
      "rstrip": false,
      "normalized": false,
      "special": true
    }
  ],
  "normalizer": {
    "type": "Sequence",
    "normalizers": [
      {
        "type": "Prepend",
        "prepend": "▁"
      },
      {
        "type": "Replace",
        "pattern": {
          "String": " "
        },
        "content": "▁"
      }
    ]
  },
  "pre_tokenizer": null,
  "post_processor": {
    "type": "TemplateProcessing",
    "single": [
      {
        "SpecialToken": {
          "id": "<s>",
          "type_id": 0
        }
      },
      {
        "Sequence": {
          "id": "A",
          "type_id": 0
        }
      }
    ],
    "pair": [
      {
        "SpecialToken": {
          "id": "<s>",
          "type_id": 0
        }
      },
      {
        "Sequence": {
          "id": "A",
          "type_id": 0
        }
      },
      {
        "SpecialToken": {
          "id": "<s>",
          "type_id": 1
        }
      },
      {
        "Sequence": {
          "id": "B",
          "type_id": 1
        }
      }
    ],
    "special_tokens": {
      "<s>": {
        "id": "<s>",
        "ids": [
          1
        ],
        "tokens": [
          "<s>"
        ]
      }
    }
  },
  "decoder": {
    "type": "Sequence",
    "decoders": [
      {
        "type": "Replace",
        "pattern": {
          "String": "▁"
        },
        "content": " "
      },
      {
        "type": "ByteFallback"
      },
      {
        "type": "Fuse"
      },
      {
        "type": "Strip",
        "content": " ",
        "start": 1,
        "stop": 0
      }
    ]
  },
  "model": {
    "type": "BPE",
    "dropout": null,
    "unk_token": "<unk>",
    "continuing_subword_prefix": null,
    "end_of_word_suffix": null,
    "fuse_unk": true,
    "byte_fallback": true,
    "vocab": {
      "<unk>": 0,
      "<s>": 1,
      "</s>": 2,
      "\t": 3,
      "\n": 4,
      "!": 5,
      "\"": 6,
      "#": 7,
      "$": 8,
      "%": 9,
      "&": 10,
      "'": 11,
      "(": 12,
      ")": 13,
      "*": 14,
      "+": 15,
      ",": 16,
      "-": 17,
      ".": 18,
      "/": 19,
      "0": 20,
      "1": 21,
      "2": 22,
      "3": 23,
      "4": 24,
      "5": 25,
      "6": 26,
      "7": 27,
      "8": 28,
      "9": 29,
      ":": 30,
      ";": 31,
      "<": 32,
      "=": 33,
      ">": 34,
      "?": 35,
      "@": 36,
      "A": 37,
      "B": 38,
      "C": 39,
      "D": 40,
      "E": 41,
      "F": 42,
      "G": 43,
      "H": 44,
      "I": 45,
      "J": 46,
      "K": 47,
      "L": 48,
      "M": 49,
      "N": 50,
      "O": 51,
      "P": 52,
      "Q": 53,
      "R": 54,
      "S": 55,
      "T": 56,
      "U": 57,
      "V": 58,
      "W": 59,
      "X": 60,
      "Y": 61,
      "Z": 62,
      "[": 63,
      "\\": 64,
      "]": 65,
      "^": 66,
      "_": 67,
      "`": 68,
      "a": 69,
      "b": 70,
      "c": 71,
      "d": 72,
      "e": 73,
      "f": 74,
      "g": 75,
      "h": 76,
      "i": 77,
      "j": 78,
      "k": 79,
      "l": 80,
      "m": 81,
      "n": 82,
      "o": 83,
      "p": 84,
      "q": 85,
      "r": 86,
      "s": 87,
      "t": 88,
      "u": 89,
      "v": 90,
      "w": 91,
      "x": 92,
      "y": 93,
      "z": 94,
      "{": 95,
      "|": 96,
      "}": 97,
      "~": 98,
      "": 99,
      "": 100,
      "": 101,
      "": 102,
      "": 103,
      "": 104,
      "": 105,
      "": 106,
      "": 107,
      " ": 108,
      "¡": 109,
      "¢": 110,
      "£": 111,
      "¤": 112,
      "¥": 113,
      "¦": 114,
      "§": 115,
      "¨": 116,
      "©": 117,
      "ª": 118,
      "«": 119,
      "¬": 120,
      "­": 121,
      "®": 122,
      "¯": 123,
      "°": 124,
      "±": 125,
      "²": 126,
      "³": 127,
      "´": 128,
      "µ": 129,
      "¶": 130,
      "·": 131,
      "¸": 132,
      "¹": 133,
      "º": 134,
      "»": 135,
      "¼": 136,
      "½": 137,
      "¾": 138,
      "¿": 139,
      "À": 140,
      "Á": 141,
      "Â": 142,
      "Ã": 143,
      "Ä": 144,
      "Å": 145,
      "Æ": 146,
      "Ç": 147,
      "È": 148,
      "É": 149,
      "Ê": 150,
      "Ë": 151,
      "Ì": 152,
      "Í": 153,
      "Î": 154,
      "Ï": 155,
      "Ð": 156,
      "Ñ": 157,
      "Ò": 158,
      "Ó": 159,
      "Ô": 160,
      "Õ": 161,
      "Ö": 162,
      "×": 163,
      "Ø": 164,
      "Ù": 165,
      "Ú": 166,
      "Û": 167,
      "Ü": 168,
      "Ý": 169,
      "Þ": 170,
      "ß": 171,
      "à": 172,
      "á": 173,
      "â": 174,
      "ã": 175,
      "ä": 176,
      "å": 177,
      "æ": 178,
      "ç": 179,
      "è": 180,
      "é": 181,
      "ê": 182,
      "ë": 183,
      "ì": 184,
      "í": 185,
      "î": 186,
      "ï": 187,
      "ð": 188,
      "ñ": 189,
      "ò": 190,
      "ó": 191,
      "ô": 192,
      "õ": 193,
      "ö": 194,
      "÷": 195,
      "ø": 196,
      "ù": 197,
      "ú": 198,
      "û": 199,
      "ü": 200,
      "ý": 201,
      "þ": 202,
      "ÿ": 203,
      "Ā": 204,
      "ā": 205,
      "Ă": 206,
      "ă": 207,
      "Ą": 208,
      "ą": 209,
      "Ć": 210,
      "ć": 211,
      "Ĉ": 212,
      "ĉ": 213,
      "Č": 214,
      "č": 215,
      "Ď": 216,
      "ď": 217,
      "Đ": 218,
      "đ": 219,
      "Ē": 220,
      "ē": 221,
      "Ĕ": 222,
      "ĕ": 223,
      "ė": 224,
      "Ę": 225,
      "ę": 226,
      "Ě": 227,
      "ě": 228,
      "ĝ": 229,
      "Ğ": 230,
      "ğ": 231,
      "Ġ": 232,
      "ġ": 233,
      "Ģ": 234,
      "ģ": 235,
      "Ĥ": 236,
      "ĥ": 237,
      "Ħ": 238,
      "ħ": 239,
      "ĩ": 240,
      "Ī": 241,
      "ī": 242,
      "Ĭ": 243,
      "ĭ": 244,
      "Į": 245,
      "į": 246,
      "İ": 247,
      "ı": 248,
      "ĳ": 249,
      "ĵ": 250,
      "Ķ": 251,
      "ķ": 252,
      "ĺ": 253,
      "ļ": 254,
      "Ľ": 255,
      "ľ": 256,
      "Ł": 257,
      "ł": 258,
      "Ń": 259,
      "ń": 260,
      "Ņ": 261,
      "ņ": 262,
      "Ň": 263,
      "ň": 264,
      "Ŋ": 265,
      "ŋ": 266,
      "Ō": 267,
      "ō": 268,
      "Ŏ": 269,
      "ŏ": 270,
      "Ő": 271,
      "ő": 272,
      "Œ": 273,
      "œ": 274,
      "ŕ": 275,
      "ŗ": 276,
      "Ř": 277,
      "ř": 278,
      "Ś": 279,
      "ś": 280,
      "ŝ": 281,
      "Ş": 282,
      "ş": 283,
      "Š": 284,
      "š": 285,
      "Ţ": 286,
      "ţ": 287,
      "Ť": 288,
      "ť": 289,
      "Ŧ": 290,
      "ŧ": 291,
      "ũ": 292,
      "Ū": 293,
      "ū": 294,
      "Ŭ": 295,
      "ŭ": 296,
      "Ů": 297,
      "ů": 298,
      "ű": 299,
      "ų": 300,
      "ŵ": 301,
      "Ÿ": 302,
      "Ź": 303,
      "ź": 304,
      "Ż": 305,
      "ż": 306,
      "Ž": 307,
      "ž": 308,
      "ſ": 309,
      "ƀ": 310,
      "Ɔ": 311,
      "Ɖ": 312,
      "Ǝ": 313,
      "Ə": 314,
      "ƒ": 315,
      "Ɣ": 316,
      "Ɵ": 317,
      "ơ": 318,
      "Ƣ": 319,
      "ƣ": 320,
      "Ʃ": 321,
      "ư": 322,
      "Ƶ": 323,
      "ƶ": 324,
      "Ʒ": 325,
      "ƿ": 326,
      "ǀ": 327,
      "ǁ": 328,
      "ǂ": 329,
      "ǃ": 330,
      "Ǎ": 331,
      "ǎ": 332,
      "Ǐ": 333,
      "ǐ": 334,
      "ǒ": 335,
      "ǔ": 336,
      "ǖ": 337,
      "ǜ": 338,
      "ǝ": 339,
      "ǟ": 340,
      "ǣ": 341,
      "ǥ": 342,
      "Ǧ": 343,
      "ǧ": 344,
      "Ǩ": 345,
      "ǩ": 346,
      "ǫ": 347,
      "Ǯ": 348,
      "ǯ": 349,
      "ǰ": 350,
      "ǵ": 351,
      "Ǻ": 352,
      "Ǿ": 353,
      "ǿ": 354,
      "ȃ": 355,
      "ȋ": 356,
      "ȗ": 357,
      "Ș": 358,
      "ș": 359,
      "Ț": 360,
      "ț": 361,
      "ȝ": 362,
      "ȟ": 363,
      "ȩ": 364,
      "ȫ": 365,
      "ȯ": 366,
      "ɐ": 367,
      "ɑ": 368,
      "ɒ": 369,
      "ɔ": 370,
      "ɕ": 371,
      "ə": 372,
      "ɚ": 373,
      "ɛ": 374,
      "ɜ": 375,
      "ɟ": 376,
      "ɡ": 377,
      "ɢ": 378,
      "ɣ": 379,
      "ɥ": 380,
      "ɦ": 381,
      "ɨ": 382,
      "ɪ": 383,
      "ɫ": 384,
      "ɬ": 385,
      "ɭ": 386,
      "ɯ": 387,
      "ɲ": 388,
      "ɳ": 389,
      "ɴ": 390,
      "ɵ": 391,
      "ɷ": 392,
      "ɹ": 393,
      "ɾ": 394,
      "ʀ": 395,
      "ʁ": 396,
      "ʂ": 397,
      "ʃ": 398,
      "ʈ": 399,
      "ʉ": 400,
      "ʊ": 401,
      "ʋ": 402,
      "ʌ": 403,
      "ʍ": 404,
      "ʎ": 405,
      "ʏ": 406,
      "ʐ": 407,
      "ʑ": 408,
      "ʒ": 409,
      "ʔ": 410,
      "ʕ": 411,
      "ʘ": 412,
      "ʙ": 413,
      "ʝ": 414,
      "ʣ": 415,
      "ʤ": 416,
      "ʰ": 417,
      "ʲ": 418,
      "ʷ": 419,
      "ʹ": 420,
      "ʺ": 421,
      "ʻ": 422,
      "ʼ": 423,
      "ʽ": 424,
      "ʾ": 425,
      "ʿ": 426,
      "ˀ": 427,
      "ˁ": 428,
      "˂": 429,
      "˃": 430,
      "ˇ": 431,
      "ˈ": 432,
      "ˉ": 433,
      "ˊ": 434,
      "ˋ": 435,
      "ˌ": 436,
      "ː": 437,
      "ˑ": 438,
      "˗": 439,
      "˘": 440,
      "˚": 441,
      "˜": 442,
      "˝": 443,
      "˟": 444,
      "ˤ": 445,
      "̀": 446,
      "́": 447,
      "̂": 448,
      "̃": 449,
      "̄": 450,
      "̆": 451,
      "̇": 452,
      "̈": 453,
      "̊": 454,
      "̌": 455,
      "̍": 456,
      "̐": 457,
      "̚": 458,
      "̝": 459,
      "̞": 460,
      "̟": 461,
      "̠": 462,
      "̡": 463,
      "̣": 464,
      "̤": 465,
      "̥": 466,
      "̨": 467,
      "̩": 468,
      "̪": 469,
      "̬": 470,
      "̯": 471,
      "̰": 472,
      "̱": 473,
      "̲": 474,
      "̶": 475,
      "̸": 476,
      "̺": 477,
      "͈": 478,
      "͘": 479,
      "͞": 480,
      "͡": 481,
      "΄": 482,
      "Ά": 483,
      "Έ": 484,
      "Ή": 485,
      "Ί": 486,
      "Ό": 487,
      "ΐ": 488,
      "Α": 489,
      "Β": 490,
      "Γ": 491,
      "Δ": 492,
      "Ε": 493,
      "Ζ": 494,
      "Η": 495,
      "Θ": 496,
      "Ι": 497,
      "Κ": 498,
      "Λ": 499,
      "Μ": 500,
      "Ν": 501,
      "Ξ": 502,
      "Ο": 503,
      "Π": 504,
      "Ρ": 505,
      "Σ": 506,
      "Τ": 507,
      "Υ": 508,
      "Φ": 509,
      "Χ": 510,
      "Ψ": 511,
      "Ω": 512,
      "ά": 513,
      "έ": 514,
      "ή": 515,
      "ί": 516,
      "ΰ": 517,
      "α": 518,
      "β": 519,
      "γ": 520,
      "δ": 521,
      "ε": 522,
      "ζ": 523,
      "η": 524,
      "θ": 525,
      "ι": 526,
      "κ": 527,
      "λ": 528,
      "μ": 529,
      "ν": 530,
      "ξ": 531,
      "ο": 532,
      "π": 533,
      "ρ": 534,
      "ς": 535,
      "σ": 536,
      "τ": 537,
      "υ": 538,
      "φ": 539,
      "χ": 540,
      "ψ": 541,
      "ω": 542,
      "ϊ": 543,
      "ϋ": 544,
      "ό": 545,
      "ύ": 546,
      "ώ": 547,
      "ϑ": 548,
      "ϛ": 549,
      "ϝ": 550,
      "ϰ": 551,
      "ϲ": 552,
      "Ϸ": 553,
      "ϸ": 554,
      "Ё": 555,
      "Ђ": 556,
      "Ѓ": 557,
      "Є": 558,
      "І": 559,
      "Ї": 560,
      "Ј": 561,
      "Љ": 562,
      "Њ": 563,
      "Ћ": 564,
      "Ў": 565,
      "А": 566,
      "Б": 567,
      "В": 568,
      "Г": 569,
      "Д": 570,
      "Е": 571,
      "Ж": 572,
      "З": 573,
      "И": 574,
      "Й": 575,
      "К": 576,
      "Л": 577,
      "М": 578,
      "Н": 579,
      "О": 580,
      "П": 581,
      "Р": 582,
      "С": 583,
      "Т": 584,
      "У": 585,
      "Ф": 586,
      "Х": 587,
      "Ц": 588,
      "Ч": 589,
      "Ш": 590,
      "Щ": 591,
      "Ъ": 592,
      "Ы": 593,
      "Ь": 594,
      "Э": 595,
      "Ю": 596,
      "Я": 597,
      "а": 598,
      "б": 599,
      "в": 600,
      "г": 601,
      "д": 602,
      "е": 603,
      "ж": 604,
      "з": 605,
      "и": 606,
      "й": 607,
      "к": 608,
      "л": 609,
      "м": 610,
      "н": 611,
      "о": 612,
      "п": 613,
      "р": 614,
      "с": 615,
      "т": 616,
      "у": 617,
      "ф": 618,
      "х": 619,
      "ц": 620,
      "ч": 621,
      "ш": 622,
      "щ": 623,
      "ъ": 624,
      "ы": 625,
      "ь": 626,
      "э": 627,
      "ю": 628,
      "я": 629,
      "ё": 630,
      "ђ": 631,
      "є": 632,
      "ѕ": 633,
      "і": 634,
      "ї": 635,
      "ј": 636,
      "љ": 637,
      "њ": 638,
      "ћ": 639,
      "ѝ": 640,
      "ў": 641,
      "џ": 642,
      "Ѣ": 643,
      "ѣ": 644,
      "ѧ": 645,
      "Ѳ": 646,
      "ѳ": 647,
      "Ѵ": 648,
      "ґ": 649,
      "Ғ": 650,
      "ғ": 651,
      "ҕ": 652,
      "Җ": 653,
      "җ": 654,
      "ҙ": 655,
      "Қ": 656,
      "қ": 657,
      "Ҝ": 658,
      "ҝ": 659,
      "Ҡ": 660,
      "ҡ": 661,
      "Ң": 662,
      "ң": 663,
      "ҥ": 664,
      "Ҧ": 665,
      "ҧ": 666,
      "Ҫ": 667,
      "ҫ": 668,
      "Ҭ": 669,
      "ҭ": 670,
      "Ү": 671,
      "ү": 672,
      "Ұ": 673,
      "ұ": 674,
      "Ҳ": 675,
      "ҳ": 676,
      "Ҷ": 677,
      "ҷ": 678,
      "Ҹ": 679,
      "ҹ": 680,
      "Һ": 681,
      "һ": 682,
      "ҽ": 683,
      "Ӏ": 684,
      "Ӂ": 685,
      "ӂ": 686,
      "ӄ": 687,
      "Ӈ": 688,
      "ӈ": 689,
      "ӏ": 690,
      "ӑ": 691,
      "Ӓ": 692,
      "ӓ": 693,
      "Ӕ": 694,
      "ӕ": 695,
      "ӗ": 696,
      "Ә": 697,
      "ә": 698,
      "Ӡ": 699,
      "ӡ": 700,
      "ӣ": 701,
      "Ӧ": 702,
      "ӧ": 703,
      "Ө": 704,
      "ө": 705,
      "ӯ": 706,
      "Ӱ": 707,
      "ӱ": 708,
      "Ӳ": 709,
      "ӳ": 710,
      "ӷ": 711,
      "ӽ": 712,
      "Ԑ": 713,
      "ԓ": 714,
      "Ա": 715,
      "Բ": 716,
      "Գ": 717,
      "Դ": 718,
      "Ե": 719,
      "Զ": 720,
      "Է": 721,
      "Ը": 722,
      "Թ": 723,
      "Ժ": 724,
      "Ի": 725,
      "Լ": 726,
      "Խ": 727,
      "Ծ": 728,
      "Կ": 729,
      "Հ": 730,
      "Ձ": 731,
      "Ղ": 732,
      "Ճ": 733,
      "Մ": 734,
      "Յ": 735,
      "Ն": 736,
      "Շ": 737,
      "Ո": 738,
      "Չ": 739,
      "Պ": 740,
      "Ջ": 741,
      "Ռ": 742,
      "Ս": 743,
      "Վ": 744,
      "Տ": 745,
      "Ր": 746,
      "Ց": 747,
      "Ւ": 748,
      "Փ": 749,
      "Ք": 750,
      "Օ": 751,
      "Ֆ": 752,
      "՚": 753,
      "՛": 754,
      "՜": 755,
      "՝": 756,
      "՞": 757,
      "ա": 758,
      "բ": 759,
      "գ": 760,
      "դ": 761,
      "ե": 762,
      "զ": 763,
      "է": 764,
      "ը": 765,
      "թ": 766,
      "ժ": 767,
      "ի": 768,
      "լ": 769,
      "խ": 770,
      "ծ": 771,
      "կ": 772,
      "հ": 773,
      "ձ": 774,
      "ղ": 775,
      "ճ": 776,
      "մ": 777,
      "յ": 778,
      "ն": 779,
      "շ": 780,
      "ո": 781,
      "չ": 782,
      "պ": 783,
      "ջ": 784,
      "ռ": 785,
      "ս": 786,
      "վ": 787,
      "տ": 788,
      "ր": 789,
      "ց": 790,
      "ւ": 791,
      "փ": 792,
      "ք": 793,
      "օ": 794,
      "ֆ": 795,
      "և": 796,
      "։": 797,
      "֏": 798,
      "֖": 799,
      "֛": 800,
      "ְ": 801,
      "ֱ": 802,
      "ֲ": 803,
      "ִ": 804,
      "ֵ": 805,
      "ֶ": 806,
      "ַ": 807,
      "ָ": 808,
      "ֹ": 809,
      "ֻ": 810,
      "ּ": 811,
      "ֽ": 812,
      "־": 813,
      "ֿ": 814,
      "ׁ": 815,
      "ׂ": 816,
      "׃": 817,
      "א": 818,
      "ב": 819,
      "ג": 820,
      "ד": 821,
      "ה": 822,
      "ו": 823,
      "ז": 824,
      "ח": 825,
      "ט": 826,
      "י": 827,
      "ך": 828,
      "כ": 829,
      "ל": 830,
      "ם": 831,
      "מ": 832,
      "ן": 833,
      "נ": 834,
      "ס": 835,
      "ע": 836,
      "ף": 837,
      "פ": 838,
      "ץ": 839,
      "צ": 840,
      "ק": 841,
      "ר": 842,
      "ש": 843,
      "ת": 844,
      "״": 845,
      "،": 846,
      "ؑ": 847,
      "ؕ": 848,
      "؛": 849,
      "؟": 850,
      "ء": 851,
      "آ": 852,
      "أ": 853,
      "ؤ": 854,
      "إ": 855,
      "ئ": 856,
      "ا": 857,
      "ب": 858,
      "ة": 859,
      "ت": 860,
      "ث": 861,
      "ج": 862,
      "ح": 863,
      "خ": 864,
      "د": 865,
      "ذ": 866,
      "ر": 867,
      "ز": 868,
      "س": 869,
      "ش": 870,
      "ص": 871,
      "ض": 872,
      "ط": 873,
      "ظ": 874,
      "ع": 875,
      "غ": 876,
      "ؼ": 877,
      "ؽ": 878,
      "ـ": 879,
      "ف": 880,
      "ق": 881,
      "ك": 882,
      "ل": 883,
      "م": 884,
      "ن": 885,
      "ه": 886,
      "و": 887,
      "ى": 888,
      "ي": 889,
      "ً": 890,
      "ٌ": 891,
      "ٍ": 892,
      "َ": 893,
      "ُ": 894,
      "ِ": 895,
      "ّ": 896,
      "ْ": 897,
      "ٓ": 898,
      "ٔ": 899,
      "ٖ": 900,
      "ٗ": 901,
      "ٛ": 902,
      "٠": 903,
      "١": 904,
      "٢": 905,
      "٣": 906,
      "٤": 907,
      "٥": 908,
      "٦": 909,
      "٧": 910,
      "٨": 911,
      "٩": 912,
      "٫": 913,
      "٬": 914,
      "ٯ": 915,
      "ٰ": 916,
      "ٱ": 917,
      "ٴ": 918,
      "ٵ": 919,
      "ٷ": 920,
      "ٸ": 921,
      "ٹ": 922,
      "ٺ": 923,
      "ٽ": 924,
      "پ": 925,
      "ځ": 926,
      "ڄ": 927,
      "چ": 928,
      "ڈ": 929,
      "ڌ": 930,
      "ڏ": 931,
      "ڑ": 932,
      "ژ": 933,
      "ڙ": 934,
      "ښ": 935,
      "ڠ": 936,
      "ڤ": 937,
      "ڨ": 938,
      "ک": 939,
      "ڪ": 940,
      "ڬ": 941,
      "ڭ": 942,
      "گ": 943,
      "ڸ": 944,
      "ڹ": 945,
      "ں": 946,
      "ڻ": 947,
      "ھ": 948,
      "ۀ": 949,
      "ہ": 950,
      "ۃ": 951,
      "ۆ": 952,
      "ۇ": 953,
      "ۈ": 954,
      "ۋ": 955,
      "ی": 956,
      "ێ": 957,
      "ې": 958,
      "ۑ": 959,
      "ے": 960,
      "۔": 961,
      "ە": 962,
      "ۖ": 963,
      "ۗ": 964,
      "ۚ": 965,
      "ۜ": 966,
      "۞": 967,
      "ۡ": 968,
      "ۤ": 969,
      "۰": 970,
      "۱": 971,
      "۲": 972,
      "۳": 973,
      "۴": 974,
      "۵": 975,
      "۶": 976,
      "۷": 977,
      "۸": 978,
      "۹": 979,
      "ܐ": 980,
      "ܒ": 981,
      "ܓ": 982,
      "ܕ": 983,
      "ܗ": 984,
      "ܘ": 985,
      "ܚ": 986,
      "ܛ": 987,
      "ܝ": 988,
      "ܟ": 989,
      "ܠ": 990,
      "ܡ": 991,
      "ܢ": 992,
      "ܣ": 993,
      "ܥ": 994,
      "ܦ": 995,
      "ܨ": 996,
      "ܩ": 997,
      "ܪ": 998,
      "ܫ": 999,
      "ܬ": 1000,
      "ܵ": 1001,
      "ܸ": 1002,
      "ހ": 1003,
      "ރ": 1004,
      "އ": 1005,
      "ވ": 1006,
      "މ": 1007,
      "ދ": 1008,
      "ލ": 1009,
      "ގ": 1010,
      "ސ": 1011,
      "ޔ": 1012,
      "ޖ": 1013,
      "ޤ": 1014,
      "ަ": 1015,
      "ާ": 1016,
      "ި": 1017,
      "ީ": 1018,
      "ު": 1019,
      "ޫ": 1020,
      "ެ": 1021,
      "ޭ": 1022,
      "ް": 1023,
      "ߊ": 1024,
      "ߋ": 1025,
      "ߌ": 1026,
      "ߏ": 1027,
      "ߖ": 1028,
      "ߘ": 1029,
      "ߛ": 1030,
      "ߜ": 1031,
      "ߞ": 1032,
      "ߣ": 1033,
      "ߦ": 1034,
      "ࣇ": 1035,
      "ँ": 1036,
      "ं": 1037,
      "ः": 1038,
      "अ": 1039,
      "आ": 1040,
      "इ": 1041,
      "ई": 1042,
      "उ": 1043,
      "ए": 1044,
      "ऐ": 1045,
      "ओ": 1046,
      "औ": 1047,
      "क": 1048,
      "ख": 1049,
      "ग": 1050,
      "घ": 1051,
      "ङ": 1052,
      "च": 1053,
      "छ": 1054,
      "ज": 1055,
      "ञ": 1056,
      "ट": 1057,
      "ठ": 1058,
      "ड": 1059,
      "ढ": 1060,
      "ण": 1061,
      "त": 1062,
      "थ": 1063,
      "द": 1064,
      "ध": 1065,
      "न": 1066,
      "प": 1067,
      "फ": 1068,
      "ब": 1069,
      "भ": 1070,
      "म": 1071,
      "य": 1072,
      "र": 1073,
      "ल": 1074,
      "ळ": 1075,
      "व": 1076,
      "श": 1077,
      "ष": 1078,
      "स": 1079,
      "ह": 1080,
      "़": 1081,
      "ा": 1082,
      "ि": 1083,
      "ी": 1084,
      "ु": 1085,
      "ू": 1086,
      "ृ": 1087,
      "े": 1088,
      "ै": 1089,
      "ॉ": 1090,
      "ो": 1091,
      "ौ": 1092,
      "्": 1093,
      "ॐ": 1094,
      "।": 1095,
      "२": 1096,
      "ঁ": 1097,
      "ং": 1098,
      "অ": 1099,
      "ই": 1100,
      "ক": 1101,
      "খ": 1102,
      "গ": 1103,
      "ঘ": 1104,
      "ঙ": 1105,
      "চ": 1106,
      "জ": 1107,
      "ঞ": 1108,
      "ট": 1109,
      "ঠ": 1110,
      "ড": 1111,
      "ণ": 1112,
      "ত": 1113,
      "থ": 1114,
      "দ": 1115,
      "ধ": 1116,
      "ন": 1117,
      "প": 1118,
      "ব": 1119,
      "ভ": 1120,
      "ম": 1121,
      "য": 1122,
      "র": 1123,
      "ল": 1124,
      "শ": 1125,
      "ষ": 1126,
      "স": 1127,
      "হ": 1128,
      "়": 1129,
      "া": 1130,
      "ি": 1131,
      "ী": 1132,
      "ু": 1133,
      "ে": 1134,
      "ৈ": 1135,
      "ো": 1136,
      "্": 1137,
      "ৎ": 1138,
      "ਅ": 1139,
      "ਇ": 1140,
      "ਉ": 1141,
      "ਕ": 1142,
      "ਖ": 1143,
      "ਗ": 1144,
      "ਘ": 1145,
      "ਜ": 1146,
      "ਡ": 1147,
      "ਦ": 1148,
      "ਨ": 1149,
      "ਪ": 1150,
      "ਫ": 1151,
      "ਬ": 1152,
      "ਮ": 1153,
      "ਰ": 1154,
      "ਲ": 1155,
      "ਵ": 1156,
      "ਸ": 1157,
      "ਹ": 1158,
      "਼": 1159,
      "ਾ": 1160,
      "ਿ": 1161,
      "ੀ": 1162,
      "ੁ": 1163,
      "ੂ": 1164,
      "ੇ": 1165,
      "ੋ": 1166,
      "੍": 1167,
      "ੜ": 1168,
      "ੰ": 1169,
      "ੱ": 1170,
      "ੴ": 1171,
      "ં": 1172,
      "છ": 1173,
      "જ": 1174,
      "ટ": 1175,
      "ત": 1176,
      "દ": 1177,
      "ન": 1178,
      "પ": 1179,
      "મ": 1180,
      "ર": 1181,
      "વ": 1182,
      "શ": 1183,
      "સ": 1184,
      "ા": 1185,
      "ી": 1186,
      "ુ": 1187,
      "ે": 1188,
      "્": 1189,
      "ଆ": 1190,
      "ଓ": 1191,
      "ଡ": 1192,
      "଼": 1193,
      "ି": 1194,
      "இ": 1195,
      "உ": 1196,
      "எ": 1197,
      "க": 1198,
      "ங": 1199,
      "ச": 1200,
      "ஜ": 1201,
      "ட": 1202,
      "ண": 1203,
      "த": 1204,
      "ந": 1205,
      "ன": 1206,
      "ப": 1207,
      "ம": 1208,
      "ய": 1209,
      "ர": 1210,
      "ற": 1211,
      "ல": 1212,
      "ள": 1213,
      "வ": 1214,
      "ஷ": 1215,
      "ஸ": 1216,
      "ா": 1217,
      "ி": 1218,
      "ு": 1219,
      "ெ": 1220,
      "ே": 1221,
      "ை": 1222,
      "ொ": 1223,
      "ோ": 1224,
      "்": 1225,
      "ం": 1226,
      "అ": 1227,
      "ఆ": 1228,
      "ఓ": 1229,
      "గ": 1230,
      "చ": 1231,
      "జ": 1232,
      "డ": 1233,
      "త": 1234,
      "ద": 1235,
      "ధ": 1236,
      "న": 1237,
      "ప": 1238,
      "బ": 1239,
      "భ": 1240,
      "మ": 1241,
      "య": 1242,
      "ర": 1243,
      "ల": 1244,
      "వ": 1245,
      "శ": 1246,
      "స": 1247,
      "ా": 1248,
      "ి": 1249,
      "ీ": 1250,
      "ు": 1251,
      "ె": 1252,
      "ే": 1253,
      "్": 1254,
      "౼": 1255,
      "ಂ": 1256,
      "ಗ": 1257,
      "ಜ": 1258,
      "ನ": 1259,
      "ಪ": 1260,
      "ಬ": 1261,
      "ಮ": 1262,
      "ಯ": 1263,
      "ರ": 1264,
      "ಳ": 1265,
      "ವ": 1266,
      "ಸ": 1267,
      "ಹ": 1268,
      "ಾ": 1269,
      "ಿ": 1270,
      "ು": 1271,
      "ೂ": 1272,
      "ೆ": 1273,
      "್": 1274,
      "ം": 1275,
      "അ": 1276,
      "ഇ": 1277,
      "എ": 1278,
      "ക": 1279,
      "ഗ": 1280,
      "ഘ": 1281,
      "ച": 1282,
      "ജ": 1283,
      "ഡ": 1284,
      "ണ": 1285,
      "ത": 1286,
      "ദ": 1287,
      "ധ": 1288,
      "ന": 1289,
      "പ": 1290,
      "ബ": 1291,
      "മ": 1292,
      "ര": 1293,
      "ല": 1294,
      "വ": 1295,
      "ശ": 1296,
      "ഷ": 1297,
      "സ": 1298,
      "ഹ": 1299,
      "ാ": 1300,
      "ി": 1301,
      "ീ": 1302,
      "ു": 1303,
      "െ": 1304,
      "്": 1305,
      "ൻ": 1306,
      "ർ": 1307,
      "ൽ": 1308,
      "ං": 1309,
      "ක": 1310,
      "ග": 1311,
      "ච": 1312,
      "ජ": 1313,
      "ඩ": 1314,
      "ත": 1315,
      "ද": 1316,
      "ධ": 1317,
      "න": 1318,
      "ප": 1319,
      "ම": 1320,
      "ය": 1321,
      "ර": 1322,
      "ල": 1323,
      "ව": 1324,
      "ශ": 1325,
      "ස": 1326,
      "හ": 1327,
      "්": 1328,
      "ා": 1329,
      "ි": 1330,
      "ී": 1331,
      "ු": 1332,
      "ก": 1333,
      "ข": 1334,
      "ค": 1335,
      "ง": 1336,
      "จ": 1337,
      "ช": 1338,
      "ซ": 1339,
      "ญ": 1340,
      "ฏ": 1341,
      "ฐ": 1342,
      "ณ": 1343,
      "ด": 1344,
      "ต": 1345,
      "ถ": 1346,
      "ท": 1347,
      "ธ": 1348,
      "น": 1349,
      "บ": 1350,
      "ป": 1351,
      "ผ": 1352,
      "พ": 1353,
      "ฟ": 1354,
      "ภ": 1355,
      "ม": 1356,
      "ย": 1357,
      "ร": 1358,
      "ล": 1359,
      "ว": 1360,
      "ศ": 1361,
      "ษ": 1362,
      "ส": 1363,
      "ห": 1364,
      "อ": 1365,
      "ะ": 1366,
      "ั": 1367,
      "า": 1368,
      "ำ": 1369,
      "ิ": 1370,
      "ี": 1371,
      "ื": 1372,
      "ุ": 1373,
      "ู": 1374,
      "฿": 1375,
      "เ": 1376,
      "แ": 1377,
      "โ": 1378,
      "ใ": 1379,
      "ไ": 1380,
      "็": 1381,
      "่": 1382,
      "้": 1383,
      "๊": 1384,
      "๋": 1385,
      "์": 1386,
      "ํ": 1387,
      "๏": 1388,
      "ຊ": 1389,
      "ດ": 1390,
      "ຕ": 1391,
      "ທ": 1392,
      "ນ": 1393,
      "ບ": 1394,
      "ປ": 1395,
      "ລ": 1396,
      "ວ": 1397,
      "ສ": 1398,
      "ອ": 1399,
      "ະ": 1400,
      "ັ": 1401,
      "າ": 1402,
      "ິ": 1403,
      "ົ": 1404,
      "ໄ": 1405,
      "་": 1406,
      "།": 1407,
      "ཀ": 1408,
      "ཁ": 1409,
      "ག": 1410,
      "ང": 1411,
      "ཆ": 1412,
      "ཏ": 1413,
      "ཐ": 1414,
      "ད": 1415,
      "པ": 1416,
      "བ": 1417,
      "མ": 1418,
      "ཛ": 1419,
      "ཟ": 1420,
      "འ": 1421,
      "ཡ": 1422,
      "ར": 1423,
      "ལ": 1424,
      "ས": 1425,
      "ི": 1426,
      "ུ": 1427,
      "ེ": 1428,
      "ོ": 1429,
      "ྐ": 1430,
      "ྒ": 1431,
      "ྡ": 1432,
      "ྩ": 1433,
      "ྫ": 1434,
      "ྱ": 1435,
      "ྲ": 1436,
      "က": 1437,
      "ခ": 1438,
      "ဂ": 1439,
      "င": 1440,
      "ဇ": 1441,
      "တ": 1442,
      "ထ": 1443,
      "န": 1444,
      "ပ": 1445,
      "မ": 1446,
      "ရ": 1447,
      "ဝ": 1448,
      "သ": 1449,
      "ာ": 1450,
      "ု": 1451,
      "ူ": 1452,
      "ေ": 1453,
      "ံ": 1454,
      "္": 1455,
      "်": 1456,
      "ျ": 1457,
      "ြ": 1458,
      "ှ": 1459,
      "Ⴀ": 1460,
      "Ⴂ": 1461,
      "Ⴃ": 1462,
      "Ⴄ": 1463,
      "Ⴅ": 1464,
      "Ⴆ": 1465,
      "Ⴇ": 1466,
      "Ⴈ": 1467,
      "Ⴊ": 1468,
      "Ⴋ": 1469,
      "Ⴌ": 1470,
      "Ⴍ": 1471,
      "Ⴐ": 1472,
      "Ⴓ": 1473,
      "Ⴔ": 1474,
      "Ⴕ": 1475,
      "Ⴟ": 1476,
      "Ⴢ": 1477,
      "Ⴣ": 1478,
      "ა": 1479,
      "ბ": 1480,
      "გ": 1481,
      "დ": 1482,
      "ე": 1483,
      "ვ": 1484,
      "ზ": 1485,
      "თ": 1486,
      "ი": 1487,
      "კ": 1488,
      "ლ": 1489,
      "მ": 1490,
      "ნ": 1491,
      "ო": 1492,
      "პ": 1493,
      "ჟ": 1494,
      "რ": 1495,
      "ს": 1496,
      "ტ": 1497,
      "უ": 1498,
      "ფ": 1499,
      "ქ": 1500,
      "ღ": 1501,
      "ყ": 1502,
      "შ": 1503,
      "ჩ": 1504,
      "ც": 1505,
      "ძ": 1506,
      "წ": 1507,
      "ჭ": 1508,
      "ხ": 1509,
      "ჯ": 1510,
      "ჰ": 1511,
      "ჱ": 1512,
      "ჲ": 1513,
      "ჳ": 1514,
      "ჴ": 1515,
      "ჵ": 1516,
      "ჶ": 1517,
      "ჷ": 1518,
      "ჸ": 1519,
      "ჹ": 1520,
      "ჺ": 1521,
      "჻": 1522,
      "ሃ": 1523,
      "ህ": 1524,
      "ለ": 1525,
      "ሊ": 1526,
      "ላ": 1527,
      "ሌ": 1528,
      "ል": 1529,
      "ሎ": 1530,
      "ሐ": 1531,
      "ሕ": 1532,
      "መ": 1533,
      "ሚ": 1534,
      "ማ": 1535,
      "ሜ": 1536,
      "ም": 1537,
      "ሞ": 1538,
      "ሥ": 1539,
      "ረ": 1540,
      "ሪ": 1541,
      "ራ": 1542,
      "ሬ": 1543,
      "ር": 1544,
      "ሮ": 1545,
      "ሰ": 1546,
      "ሲ": 1547,
      "ሳ": 1548,
      "ሴ": 1549,
      "ስ": 1550,
      "ሻ": 1551,
      "ሽ": 1552,
      "ቀ": 1553,
      "ቁ": 1554,
      "ቂ": 1555,
      "ቅ": 1556,
      "በ": 1557,
      "ቡ": 1558,
      "ቢ": 1559,
      "ባ": 1560,
      "ብ": 1561,
      "ቦ": 1562,
      "ተ": 1563,
      "ቲ": 1564,
      "ታ": 1565,
      "ቴ": 1566,
      "ት": 1567,
      "ቶ": 1568,
      "ኃ": 1569,
      "ኅ": 1570,
      "ነ": 1571,
      "ኒ": 1572,
      "ኔ": 1573,
      "ን": 1574,
      "ኛ": 1575,
      "አ": 1576,
      "ኢ": 1577,
      "ኤ": 1578,
      "እ": 1579,
      "ኦ": 1580,
      "ከ": 1581,
      "ካ": 1582,
      "ክ": 1583,
      "ኮ": 1584,
      "ወ": 1585,
      "ዊ": 1586,
      "ዋ": 1587,
      "ዎ": 1588,
      "ዐ": 1589,
      "ዙ": 1590,
      "ዝ": 1591,
      "የ": 1592,
      "ያ": 1593,
      "ይ": 1594,
      "ዮ": 1595,
      "ደ": 1596,
      "ዳ": 1597,
      "ዴ": 1598,
      "ድ": 1599,
      "ዶ": 1600,
      "ገ": 1601,
      "ጉ": 1602,
      "ጊ": 1603,
      "ጋ": 1604,
      "ግ": 1605,
      "ጣ": 1606,
      "ጥ": 1607,
      "ጳ": 1608,
      "ጵ": 1609,
      "ጼ": 1610,
      "ፈ": 1611,
      "ፋ": 1612,
      "ፌ": 1613,
      "ፐ": 1614,
      "፪": 1615,
      "Ꭶ": 1616,
      "Ꭽ": 1617,
      "Ꮅ": 1618,
      "Ꮧ": 1619,
      "ᐃ": 1620,
      "ᐅ": 1621,
      "ᐊ": 1622,
      "ᐤ": 1623,
      "ᐧ": 1624,
      "ᐸ": 1625,
      "ᑌ": 1626,
      "ᑎ": 1627,
      "ᑐ": 1628,
      "ᑦ": 1629,
      "ᑯ": 1630,
      "ᒃ": 1631,
      "ᒥ": 1632,
      "ᓄ": 1633,
      "ᓇ": 1634,
      "ᓐ": 1635,
      "ᓱ": 1636,
      "ᔪ": 1637,
      "ᖅ": 1638,
      "ᖓ": 1639,
      "ᖽ": 1640,
      "ᖿ": 1641,
      "ᚠ": 1642,
      "ᚢ": 1643,
      "ᚨ": 1644,
      "ᛞ": 1645,
      "ខ": 1646,
      "គ": 1647,
      "ង": 1648,
      "ច": 1649,
      "ឆ": 1650,
      "ញ": 1651,
      "ដ": 1652,
      "ត": 1653,
      "ទ": 1654,
      "ន": 1655,
      "ប": 1656,
      "ព": 1657,
      "ភ": 1658,
      "ម": 1659,
      "យ": 1660,
      "រ": 1661,
      "ល": 1662,
      "ស": 1663,
      "ហ": 1664,
      "ា": 1665,
      "ិ": 1666,
      "ី": 1667,
      "ុ": 1668,
      "ូ": 1669,
      "េ": 1670,
      "ំ": 1671,
      "៏": 1672,
      "្": 1673,
      "៙": 1674,
      "៛": 1675,
      "ᠠ": 1676,
      "ᠢ": 1677,
      "ᠣ": 1678,
      "ᠤ": 1679,
      "ᠨ": 1680,
      "ᠪ": 1681,
      "ᠬ": 1682,
      "ᠭ": 1683,
      "ᠯ": 1684,
      "ᠰ": 1685,
      "ᠲ": 1686,
      "ᠳ": 1687,
      "ᠶ": 1688,
      "ᠷ": 1689,
      "ᮀ": 1690,
      "ᮃ": 1691,
      "ᮅ": 1692,
      "ᮊ": 1693,
      "ᮍ": 1694,
      "ᮎ": 1695,
      "ᮏ": 1696,
      "ᮒ": 1697,
      "ᮓ": 1698,
      "ᮔ": 1699,
      "ᮕ": 1700,
      "ᮘ": 1701,
      "ᮙ": 1702,
      "ᮛ": 1703,
      "ᮜ": 1704,
      "ᮝ": 1705,
      "ᮞ": 1706,
      "ᮠ": 1707,
      "ᮤ": 1708,
      "ᮥ": 1709,
      "ᮦ": 1710,
      "ᮧ": 1711,
      "ᮨ": 1712,
      "᮪": 1713,
      "ᵐ": 1714,
      "ᵒ": 1715,
      "ᵛ": 1716,
      "ḃ": 1717,
      "Ḅ": 1718,
      "ḅ": 1719,
      "ḇ": 1720,
      "ḉ": 1721,
      "Ḍ": 1722,
      "ḍ": 1723,
      "Ḏ": 1724,
      "ḏ": 1725,
      "ḓ": 1726,
      "ḕ": 1727,
      "ḗ": 1728,
      "Ḡ": 1729,
      "ḡ": 1730,
      "ḣ": 1731,
      "Ḥ": 1732,
      "ḥ": 1733,
      "Ḩ": 1734,
      "ḩ": 1735,
      "Ḫ": 1736,
      "ḫ": 1737,
      "ḱ": 1738,
      "Ḳ": 1739,
      "ḳ": 1740,
      "Ḵ": 1741,
      "ḵ": 1742,
      "ḷ": 1743,
      "ḽ": 1744,
      "ḿ": 1745,
      "ṃ": 1746,
      "ṅ": 1747,
      "ṇ": 1748,
      "ṓ": 1749,
      "ṕ": 1750,
      "Ṗ": 1751,
      "ṗ": 1752,
      "ṙ": 1753,
      "ṛ": 1754,
      "ṟ": 1755,
      "Ṣ": 1756,
      "ṣ": 1757,
      "Ṫ": 1758,
      "ṫ": 1759,
      "Ṭ": 1760,
      "ṭ": 1761,
      "ṯ": 1762,
      "ẃ": 1763,
      "ẋ": 1764,
      "Ẍ": 1765,
      "ẍ": 1766,
      "Ẓ": 1767,
      "ẓ": 1768,
      "Ẕ": 1769,
      "ẕ": 1770,
      "ẖ": 1771,
      "ạ": 1772,
      "ả": 1773,
      "ấ": 1774,
      "ầ": 1775,
      "ậ": 1776,
      "ắ": 1777,
      "ằ": 1778,
      "ặ": 1779,
      "ẹ": 1780,
      "ẻ": 1781,
      "Ẽ": 1782,
      "ẽ": 1783,
      "ế": 1784,
      "ề": 1785,
      "ể": 1786,
      "ễ": 1787,
      "ệ": 1788,
      "ỉ": 1789,
      "ị": 1790,
      "ọ": 1791,
      "ỏ": 1792,
      "ố": 1793,
      "ồ": 1794,
      "ổ": 1795,
      "ộ": 1796,
      "ớ": 1797,
      "ờ": 1798,
      "ở": 1799,
      "ợ": 1800,
      "Ụ": 1801,
      "ụ": 1802,
      "ủ": 1803,
      "ứ": 1804,
      "ử": 1805,
      "ữ": 1806,
      "ự": 1807,
      "ỳ": 1808,
      "ỹ": 1809,
      "ἀ": 1810,
      "ἂ": 1811,
      "ἄ": 1812,
      "Ἀ": 1813,
      "Ἄ": 1814,
      "ἐ": 1815,
      "ἑ": 1816,
      "ἔ": 1817,
      "Ἐ": 1818,
      "Ἑ": 1819,
      "Ἔ": 1820,
      "Ἕ": 1821,
      "ἠ": 1822,
      "ἡ": 1823,
      "ἤ": 1824,
      "ἥ": 1825,
      "ἦ": 1826,
      "ἧ": 1827,
      "Ἠ": 1828,
      "Ἡ": 1829,
      "Ἥ": 1830,
      "ἰ": 1831,
      "ἱ": 1832,
      "ἴ": 1833,
      "ἵ": 1834,
      "ἶ": 1835,
      "ἷ": 1836,
      "Ἰ": 1837,
      "Ἱ": 1838,
      "Ἵ": 1839,
      "ὀ": 1840,
      "ὁ": 1841,
      "ὄ": 1842,
      "ὅ": 1843,
      "Ὀ": 1844,
      "Ὁ": 1845,
      "Ὄ": 1846,
      "Ὅ": 1847,
      "ὐ": 1848,
      "ὑ": 1849,
      "ὔ": 1850,
      "ὕ": 1851,
      "ὖ": 1852,
      "Ὑ": 1853,
      "Ὕ": 1854,
      "Ὠ": 1855,
      "ὰ": 1856,
      "ὲ": 1857,
      "ὴ": 1858,
      "ὶ": 1859,
      "ὸ": 1860,
      "ὺ": 1861,
      "ὼ": 1862,
      "ᾠ": 1863,
      "ᾨ": 1864,
      "ᾰ": 1865,
      "ᾱ": 1866,
      "ᾳ": 1867,
      "ᾶ": 1868,
      "᾽": 1869,
      "᾿": 1870,
      "ῆ": 1871,
      "ῐ": 1872,
      "ῑ": 1873,
      "ῖ": 1874,
      "ῠ": 1875,
      "ῡ": 1876,
      "ῤ": 1877,
      "ῥ": 1878,
      "ῦ": 1879,
      "Ῥ": 1880,
      "ῳ": 1881,
      "ῴ": 1882,
      "ῶ": 1883,
      "Ὸ": 1884,
      " ": 1885,
      " ": 1886,
      " ": 1887,
      " ": 1888,
      " ": 1889,
      "​": 1890,
      "‌": 1891,
      "‍": 1892,
      "‎": 1893,
      "‏": 1894,
      "‐": 1895,
      "‑": 1896,
      "‒": 1897,
      "–": 1898,
      "—": 1899,
      "―": 1900,
      "‖": 1901,
      "‘": 1902,
      "’": 1903,
      "‚": 1904,
      "‛": 1905,
      "“": 1906,
      "”": 1907,
      "„": 1908,
      "‟": 1909,
      "†": 1910,
      "‡": 1911,
      "•": 1912,
      "․": 1913,
      "…": 1914,
      "‧": 1915,
      "‪": 1916,
      "‬": 1917,
      " ": 1918,
      "‰": 1919,
      "′": 1920,
      "″": 1921,
      "‹": 1922,
      "›": 1923,
      "‼": 1924,
      "‽": 1925,
      "‿": 1926,
      "⁄": 1927,
      "⁠": 1928,
      "⁢": 1929,
      "⁬": 1930,
      "⁰": 1931,
      "⁴": 1932,
      "⁵": 1933,
      "⁶": 1934,
      "⁷": 1935,
      "⁸": 1936,
      "⁻": 1937,
      "⁽": 1938,
      "⁾": 1939,
      "ⁿ": 1940,
      "₀": 1941,
      "₁": 1942,
      "₂": 1943,
      "₃": 1944,
      "₄": 1945,
      "₅": 1946,
      "₆": 1947,
      "₉": 1948,
      "₣": 1949,
      "₤": 1950,
      "₥": 1951,
      "₩": 1952,
      "€": 1953,
      "₭": 1954,
      "₮": 1955,
      "₱": 1956,
      "₴": 1957,
      "₹": 1958,
      "₺": 1959,
      "₼": 1960,
      "₽": 1961,
      "⃣": 1962,
      "℃": 1963,
      "℅": 1964,
      "ℎ": 1965,
      "ℏ": 1966,
      "ℓ": 1967,
      "№": 1968,
      "ℝ": 1969,
      "℟": 1970,
      "™": 1971,
      "℣": 1972,
      "ℰ": 1973,
      "⅓": 1974,
      "⅔": 1975,
      "⅖": 1976,
      "⅝": 1977,
      "Ⅱ": 1978,
      "Ⅶ": 1979,
      "Ⅷ": 1980,
      "Ⅸ": 1981,
      "Ⅹ": 1982,
      "←": 1983,
      "↑": 1984,
      "→": 1985,
      "↓": 1986,
      "↔": 1987,
      "↕": 1988,
      "↵": 1989,
      "⇆": 1990,
      "⇌": 1991,
      "⇒": 1992,
      "⇨": 1993,
      "⇾": 1994,
      "∀": 1995,
      "∂": 1996,
      "∅": 1997,
      "∆": 1998,
      "∇": 1999,
      "∈": 2000,
      "∉": 2001,
      "∏": 2002,
      "∑": 2003,
      "−": 2004,
      "∓": 2005,
      "∕": 2006,
      "∗": 2007,
      "∘": 2008,
      "∙": 2009,
      "√": 2010,
      "∝": 2011,
      "∞": 2012,
      "∠": 2013,
      "∧": 2014,
      "∩": 2015,
      "∪": 2016,
      "∫": 2017,
      "∮": 2018,
      "∼": 2019,
      "≈": 2020,
      "≠": 2021,
      "≡": 2022,
      "≤": 2023,
      "≥": 2024,
      "≪": 2025,
      "≫": 2026,
      "≲": 2027,
      "⊂": 2028,
      "⊆": 2029,
      "⊕": 2030,
      "⊙": 2031,
      "⊥": 2032,
      "⋅": 2033,
      "⋮": 2034,
      "⌈": 2035,
      "⌉": 2036,
      "⌋": 2037,
      "⌓": 2038,
      "⌬": 2039,
      "⑥": 2040,
      "ⓘ": 2041,
      "─": 2042,
      "│": 2043,
      "└": 2044,
      "├": 2045,
      "┬": 2046,
      "┴": 2047,
      "▁": 2048,
      "■": 2049,
      "□": 2050,
      "▪": 2051,
      "▬": 2052,
      "▲": 2053,
      "△": 2054,
      "▶": 2055,
      "▸": 2056,
      "►": 2057,
      "◆": 2058,
      "○": 2059,
      "●": 2060,
      "◦": 2061,
      "★": 2062,
      "☆": 2063,
      "☉": 2064,
      "☥": 2065,
      "☭": 2066,
      "☼": 2067,
      "♀": 2068,
      "♂": 2069,
      "♃": 2070,
      "♄": 2071,
      "♅": 2072,
      "♆": 2073,
      "♈": 2074,
      "♉": 2075,
      "♌": 2076,
      "♔": 2077,
      "♚": 2078,
      "♞": 2079,
      "♠": 2080,
      "♡": 2081,
      "♥": 2082,
      "♦": 2083,
      "♨": 2084,
      "♭": 2085,
      "♯": 2086,
      "⚜": 2087,
      "⚡": 2088,
      "⛢": 2089,
      "✌": 2090,
      "✓": 2091,
      "✖": 2092,
      "❄": 2093,
      "❅": 2094,
      "❆": 2095,
      "❤": 2096,
      "➕": 2097,
      "➡": 2098,
      "⟨": 2099,
      "⟩": 2100,
      "⟶": 2101,
      "⠀": 2102,
      "⦋": 2103,
      "⦌": 2104,
      "Ⱨ": 2105,
      "ⱨ": 2106,
      "Ⱪ": 2107,
      "ⱪ": 2108,
      "ⱬ": 2109,
      "Ɐ": 2110,
      "ⱱ": 2111,
      "ⲁ": 2112,
      "ⲃ": 2113,
      "ⲉ": 2114,
      "ⲛ": 2115,
      "Ⲟ": 2116,
      "ⲥ": 2117,
      "ⲧ": 2118,
      "ⲩ": 2119,
      "ⲱ": 2120,
      "ⴰ": 2121,
      "ⴱ": 2122,
      "ⵔ": 2123,
      "ⵣ": 2124,
      "　": 2125,
      "、": 2126,
      "。": 2127,
      "〈": 2128,
      "〉": 2129,
      "《": 2130,
      "》": 2131,
      "「": 2132,
      "」": 2133,
      "『": 2134,
      "』": 2135,
      "〒": 2136,
      "〖": 2137,
      "〗": 2138,
      "〜": 2139,
      "あ": 2140,
      "い": 2141,
      "う": 2142,
      "え": 2143,
      "お": 2144,
      "か": 2145,
      "が": 2146,
      "き": 2147,
      "ぎ": 2148,
      "く": 2149,
      "ぐ": 2150,
      "け": 2151,
      "げ": 2152,
      "こ": 2153,
      "ご": 2154,
      "さ": 2155,
      "ざ": 2156,
      "し": 2157,
      "じ": 2158,
      "す": 2159,
      "ず": 2160,
      "せ": 2161,
      "そ": 2162,
      "た": 2163,
      "だ": 2164,
      "ち": 2165,
      "っ": 2166,
      "つ": 2167,
      "て": 2168,
      "で": 2169,
      "と": 2170,
      "ど": 2171,
      "な": 2172,
      "に": 2173,
      "ぬ": 2174,
      "ね": 2175,
      "の": 2176,
      "は": 2177,
      "ば": 2178,
      "ぱ": 2179,
      "ひ": 2180,
      "び": 2181,
      "ぴ": 2182,
      "ふ": 2183,
      "ぶ": 2184,
      "ぷ": 2185,
      "へ": 2186,
      "べ": 2187,
      "ぼ": 2188,
      "ぽ": 2189,
      "ま": 2190,
      "み": 2191,
      "む": 2192,
      "め": 2193,
      "も": 2194,
      "ゃ": 2195,
      "や": 2196,
      "ゆ": 2197,
      "ょ": 2198,
      "よ": 2199,
      "ら": 2200,
      "り": 2201,
      "る": 2202,
      "れ": 2203,
      "ろ": 2204,
      "わ": 2205,
      "を": 2206,
      "ん": 2207,
      "゜": 2208,
      "ァ": 2209,
      "ア": 2210,
      "ィ": 2211,
      "イ": 2212,
      "ゥ": 2213,
      "ウ": 2214,
      "ェ": 2215,
      "エ": 2216,
      "ォ": 2217,
      "オ": 2218,
      "カ": 2219,
      "ガ": 2220,
      "キ": 2221,
      "ギ": 2222,
      "ク": 2223,
      "グ": 2224,
      "ケ": 2225,
      "ゲ": 2226,
      "コ": 2227,
      "ゴ": 2228,
      "サ": 2229,
      "ザ": 2230,
      "シ": 2231,
      "ジ": 2232,
      "ス": 2233,
      "ズ": 2234,
      "セ": 2235,
      "ゼ": 2236,
      "ソ": 2237,
      "ゾ": 2238,
      "タ": 2239,
      "ダ": 2240,
      "チ": 2241,
      "ッ": 2242,
      "ツ": 2243,
      "テ": 2244,
      "デ": 2245,
      "ト": 2246,
      "ド": 2247,
      "ナ": 2248,
      "ニ": 2249,
      "ヌ": 2250,
      "ネ": 2251,
      "ノ": 2252,
      "ハ": 2253,
      "バ": 2254,
      "パ": 2255,
      "ヒ": 2256,
      "ビ": 2257,
      "ピ": 2258,
      "フ": 2259,
      "ブ": 2260,
      "プ": 2261,
      "ヘ": 2262,
      "ベ": 2263,
      "ペ": 2264,
      "ホ": 2265,
      "ボ": 2266,
      "ポ": 2267,
      "マ": 2268,
      "ミ": 2269,
      "ム": 2270,
      "メ": 2271,
      "モ": 2272,
      "ャ": 2273,
      "ヤ": 2274,
      "ュ": 2275,
      "ユ": 2276,
      "ョ": 2277,
      "ヨ": 2278,
      "ラ": 2279,
      "リ": 2280,
      "ル": 2281,
      "レ": 2282,
      "ロ": 2283,
      "ワ": 2284,
      "ヰ": 2285,
      "ヱ": 2286,
      "ヲ": 2287,
      "ン": 2288,
      "ヴ": 2289,
      "・": 2290,
      "ー": 2291,
      "ㄱ": 2292,
      "ㄲ": 2293,
      "ㄴ": 2294,
      "ㄷ": 2295,
      "ㄸ": 2296,
      "ㄹ": 2297,
      "ㅁ": 2298,
      "ㅂ": 2299,
      "ㅃ": 2300,
      "ㅅ": 2301,
      "ㅆ": 2302,
      "ㅇ": 2303,
      "ㅈ": 2304,
      "ㅉ": 2305,
      "ㅊ": 2306,
      "ㅋ": 2307,
      "ㅌ": 2308,
      "ㅍ": 2309,
      "ㅎ": 2310,
      "ㅡ": 2311,
      "ㇽ": 2312,
      "ㇿ": 2313,
      "㎡": 2314,
      "㗂": 2315,
      "䭏": 2316,
      "一": 2317,
      "丁": 2318,
      "七": 2319,
      "万": 2320,
      "三": 2321,
      "上": 2322,
      "下": 2323,
      "不": 2324,
      "与": 2325,
      "丑": 2326,
      "专": 2327,
      "丕": 2328,
      "世": 2329,
      "丘": 2330,
      "业": 2331,
      "东": 2332,
      "丝": 2333,
      "两": 2334,
      "並": 2335,
      "个": 2336,
      "中": 2337,
      "临": 2338,
      "丸": 2339,
      "丹": 2340,
      "为": 2341,
      "主": 2342,
      "丽": 2343,
      "乂": 2344,
      "乃": 2345,
      "久": 2346,
      "义": 2347,
      "之": 2348,
      "乌": 2349,
      "乐": 2350,
      "乙": 2351,
      "九": 2352,
      "乞": 2353,
      "乡": 2354,
      "书": 2355,
      "乭": 2356,
      "乱": 2357,
      "亂": 2358,
      "予": 2359,
      "争": 2360,
      "事": 2361,
      "二": 2362,
      "于": 2363,
      "云": 2364,
      "五": 2365,
      "井": 2366,
      "亚": 2367,
      "亜": 2368,
      "亡": 2369,
      "交": 2370,
      "亥": 2371,
      "产": 2372,
      "享": 2373,
      "京": 2374,
      "亭": 2375,
      "亮": 2376,
      "亲": 2377,
      "人": 2378,
      "什": 2379,
      "仁": 2380,
      "今": 2381,
      "介": 2382,
      "从": 2383,
      "仑": 2384,
      "他": 2385,
      "付": 2386,
      "仙": 2387,
      "代": 2388,
      "令": 2389,
      "以": 2390,
      "件": 2391,
      "任": 2392,
      "伊": 2393,
      "伎": 2394,
      "伏": 2395,
      "伐": 2396,
      "休": 2397,
      "优": 2398,
      "会": 2399,
      "伝": 2400,
      "传": 2401,
      "伦": 2402,
      "伯": 2403,
      "伴": 2404,
      "似": 2405,
      "伽": 2406,
      "但": 2407,
      "佉": 2408,
      "住": 2409,
      "佐": 2410,
      "体": 2411,
      "何": 2412,
      "佛": 2413,
      "作": 2414,
      "你": 2415,
      "佤": 2416,
      "佰": 2417,
      "佳": 2418,
      "使": 2419,
      "來": 2420,
      "例": 2421,
      "侍": 2422,
      "供": 2423,
      "依": 2424,
      "価": 2425,
      "侯": 2426,
      "便": 2427,
      "係": 2428,
      "俄": 2429,
      "俑": 2430,
      "俗": 2431,
      "保": 2432,
      "俞": 2433,
      "俟": 2434,
      "信": 2435,
      "修": 2436,
      "俱": 2437,
      "俳": 2438,
      "倉": 2439,
      "倍": 2440,
      "借": 2441,
      "倫": 2442,
      "倭": 2443,
      "假": 2444,
      "健": 2445,
      "偷": 2446,
      "傅": 2447,
      "傘": 2448,
      "備": 2449,
      "傭": 2450,
      "傳": 2451,
      "像": 2452,
      "僕": 2453,
      "僧": 2454,
      "僰": 2455,
      "僱": 2456,
      "僵": 2457,
      "儀": 2458,
      "儆": 2459,
      "儉": 2460,
      "儒": 2461,
      "儚": 2462,
      "償": 2463,
      "優": 2464,
      "儺": 2465,
      "儼": 2466,
      "允": 2467,
      "元": 2468,
      "兄": 2469,
      "先": 2470,
      "光": 2471,
      "克": 2472,
      "免": 2473,
      "兒": 2474,
      "党": 2475,
      "兜": 2476,
      "兢": 2477,
      "入": 2478,
      "內": 2479,
      "全": 2480,
      "兩": 2481,
      "八": 2482,
      "公": 2483,
      "六": 2484,
      "兮": 2485,
      "兰": 2486,
      "共": 2487,
      "兵": 2488,
      "其": 2489,
      "具": 2490,
      "典": 2491,
      "内": 2492,
      "円": 2493,
      "冊": 2494,
      "册": 2495,
      "再": 2496,
      "军": 2497,
      "农": 2498,
      "冠": 2499,
      "冷": 2500,
      "净": 2501,
      "准": 2502,
      "凇": 2503,
      "凉": 2504,
      "凡": 2505,
      "凹": 2506,
      "出": 2507,
      "刀": 2508,
      "刁": 2509,
      "分": 2510,
      "切": 2511,
      "刊": 2512,
      "划": 2513,
      "列": 2514,
      "刘": 2515,
      "创": 2516,
      "初": 2517,
      "別": 2518,
      "利": 2519,
      "别": 2520,
      "制": 2521,
      "刷": 2522,
      "刹": 2523,
      "則": 2524,
      "前": 2525,
      "剛": 2526,
      "剪": 2527,
      "副": 2528,
      "割": 2529,
      "創": 2530,
      "劃": 2531,
      "劇": 2532,
      "劉": 2533,
      "劍": 2534,
      "力": 2535,
      "功": 2536,
      "加": 2537,
      "务": 2538,
      "动": 2539,
      "努": 2540,
      "劫": 2541,
      "劳": 2542,
      "労": 2543,
      "勃": 2544,
      "勅": 2545,
      "勒": 2546,
      "動": 2547,
      "勗": 2548,
      "務": 2549,
      "勝": 2550,
      "勞": 2551,
      "勢": 2552,
      "勣": 2553,
      "勤": 2554,
      "勱": 2555,
      "勾": 2556,
      "勿": 2557,
      "包": 2558,
      "匈": 2559,
      "匐": 2560,
      "化": 2561,
      "北": 2562,
      "匙": 2563,
      "匡": 2564,
      "匮": 2565,
      "匹": 2566,
      "区": 2567,
      "匿": 2568,
      "區": 2569,
      "十": 2570,
      "千": 2571,
      "半": 2572,
      "华": 2573,
      "卑": 2574,
      "卓": 2575,
      "協": 2576,
      "南": 2577,
      "単": 2578,
      "博": 2579,
      "卡": 2580,
      "卢": 2581,
      "印": 2582,
      "即": 2583,
      "却": 2584,
      "卵": 2585,
      "卿": 2586,
      "厅": 2587,
      "历": 2588,
      "厉": 2589,
      "原": 2590,
      "厥": 2591,
      "厦": 2592,
      "厭": 2593,
      "厳": 2594,
      "去": 2595,
      "县": 2596,
      "参": 2597,
      "參": 2598,
      "及": 2599,
      "友": 2600,
      "双": 2601,
      "反": 2602,
      "収": 2603,
      "发": 2604,
      "叔": 2605,
      "取": 2606,
      "口": 2607,
      "古": 2608,
      "句": 2609,
      "叫": 2610,
      "可": 2611,
      "台": 2612,
      "叱": 2613,
      "史": 2614,
      "右": 2615,
      "叶": 2616,
      "号": 2617,
      "司": 2618,
      "合": 2619,
      "吉": 2620,
      "吊": 2621,
      "同": 2622,
      "名": 2623,
      "后": 2624,
      "吐": 2625,
      "向": 2626,
      "吒": 2627,
      "君": 2628,
      "吞": 2629,
      "启": 2630,
      "吳": 2631,
      "吴": 2632,
      "吹": 2633,
      "吾": 2634,
      "呂": 2635,
      "告": 2636,
      "员": 2637,
      "周": 2638,
      "味": 2639,
      "呼": 2640,
      "命": 2641,
      "咄": 2642,
      "和": 2643,
      "咍": 2644,
      "咥": 2645,
      "咲": 2646,
      "品": 2647,
      "哈": 2648,
      "員": 2649,
      "哨": 2650,
      "哲": 2651,
      "唄": 2652,
      "唐": 2653,
      "唯": 2654,
      "唵": 2655,
      "商": 2656,
      "啜": 2657,
      "喀": 2658,
      "善": 2659,
      "喜": 2660,
      "喬": 2661,
      "單": 2662,
      "喰": 2663,
      "嗣": 2664,
      "嘉": 2665,
      "嘎": 2666,
      "嘗": 2667,
      "噌": 2668,
      "噠": 2669,
      "器": 2670,
      "噶": 2671,
      "嚈": 2672,
      "嚳": 2673,
      "嚴": 2674,
      "四": 2675,
      "回": 2676,
      "因": 2677,
      "团": 2678,
      "団": 2679,
      "园": 2680,
      "囲": 2681,
      "図": 2682,
      "国": 2683,
      "图": 2684,
      "圆": 2685,
      "圈": 2686,
      "國": 2687,
      "圍": 2688,
      "圏": 2689,
      "園": 2690,
      "圓": 2691,
      "圖": 2692,
      "團": 2693,
      "土": 2694,
      "圣": 2695,
      "圧": 2696,
      "在": 2697,
      "地": 2698,
      "圻": 2699,
      "坂": 2700,
      "均": 2701,
      "坊": 2702,
      "坎": 2703,
      "坐": 2704,
      "坑": 2705,
      "坡": 2706,
      "坦": 2707,
      "坪": 2708,
      "型": 2709,
      "垦": 2710,
      "城": 2711,
      "埔": 2712,
      "埗": 2713,
      "域": 2714,
      "執": 2715,
      "培": 2716,
      "基": 2717,
      "堀": 2718,
      "堂": 2719,
      "堅": 2720,
      "堆": 2721,
      "堯": 2722,
      "報": 2723,
      "場": 2724,
      "塔": 2725,
      "塘": 2726,
      "塙": 2727,
      "塚": 2728,
      "塞": 2729,
      "墀": 2730,
      "境": 2731,
      "墓": 2732,
      "墨": 2733,
      "墳": 2734,
      "壇": 2735,
      "壓": 2736,
      "壕": 2737,
      "士": 2738,
      "壮": 2739,
      "壯": 2740,
      "声": 2741,
      "売": 2742,
      "壽": 2743,
      "处": 2744,
      "変": 2745,
      "复": 2746,
      "夏": 2747,
      "夕": 2748,
      "外": 2749,
      "多": 2750,
      "夜": 2751,
      "夢": 2752,
      "大": 2753,
      "天": 2754,
      "太": 2755,
      "夫": 2756,
      "央": 2757,
      "失": 2758,
      "头": 2759,
      "夷": 2760,
      "夸": 2761,
      "奇": 2762,
      "奈": 2763,
      "奉": 2764,
      "契": 2765,
      "套": 2766,
      "奚": 2767,
      "奥": 2768,
      "奧": 2769,
      "奮": 2770,
      "女": 2771,
      "奴": 2772,
      "好": 2773,
      "如": 2774,
      "妓": 2775,
      "妖": 2776,
      "妙": 2777,
      "妥": 2778,
      "妻": 2779,
      "姆": 2780,
      "姉": 2781,
      "始": 2782,
      "姑": 2783,
      "姓": 2784,
      "委": 2785,
      "姚": 2786,
      "姜": 2787,
      "姪": 2788,
      "姫": 2789,
      "姬": 2790,
      "威": 2791,
      "娃": 2792,
      "娄": 2793,
      "娅": 2794,
      "娘": 2795,
      "娛": 2796,
      "娥": 2797,
      "婆": 2798,
      "婚": 2799,
      "婦": 2800,
      "婷": 2801,
      "媒": 2802,
      "媛": 2803,
      "媽": 2804,
      "嫁": 2805,
      "嫦": 2806,
      "子": 2807,
      "孔": 2808,
      "字": 2809,
      "存": 2810,
      "孙": 2811,
      "孛": 2812,
      "孜": 2813,
      "孝": 2814,
      "季": 2815,
      "孤": 2816,
      "学": 2817,
      "孩": 2818,
      "孫": 2819,
      "孰": 2820,
      "學": 2821,
      "宁": 2822,
      "宅": 2823,
      "宇": 2824,
      "守": 2825,
      "安": 2826,
      "宋": 2827,
      "完": 2828,
      "宏": 2829,
      "宗": 2830,
      "官": 2831,
      "宙": 2832,
      "定": 2833,
      "宜": 2834,
      "宝": 2835,
      "実": 2836,
      "审": 2837,
      "客": 2838,
      "宣": 2839,
      "室": 2840,
      "宪": 2841,
      "宫": 2842,
      "宮": 2843,
      "宰": 2844,
      "害": 2845,
      "家": 2846,
      "容": 2847,
      "宿": 2848,
      "寄": 2849,
      "寅": 2850,
      "密": 2851,
      "寇": 2852,
      "富": 2853,
      "寛": 2854,
      "察": 2855,
      "實": 2856,
      "寧": 2857,
      "審": 2858,
      "寶": 2859,
      "寸": 2860,
      "寺": 2861,
      "対": 2862,
      "寿": 2863,
      "射": 2864,
      "将": 2865,
      "將": 2866,
      "專": 2867,
      "尉": 2868,
      "尊": 2869,
      "尋": 2870,
      "導": 2871,
      "小": 2872,
      "少": 2873,
      "尔": 2874,
      "尖": 2875,
      "尚": 2876,
      "尝": 2877,
      "尤": 2878,
      "就": 2879,
      "尹": 2880,
      "尼": 2881,
      "尽": 2882,
      "尾": 2883,
      "局": 2884,
      "居": 2885,
      "屋": 2886,
      "屍": 2887,
      "展": 2888,
      "屠": 2889,
      "屯": 2890,
      "山": 2891,
      "岀": 2892,
      "岐": 2893,
      "岛": 2894,
      "岡": 2895,
      "岩": 2896,
      "岬": 2897,
      "岭": 2898,
      "岳": 2899,
      "岸": 2900,
      "峡": 2901,
      "峯": 2902,
      "峰": 2903,
      "島": 2904,
      "崇": 2905,
      "崎": 2906,
      "崑": 2907,
      "崔": 2908,
      "川": 2909,
      "州": 2910,
      "工": 2911,
      "左": 2912,
      "巧": 2913,
      "巨": 2914,
      "巫": 2915,
      "差": 2916,
      "己": 2917,
      "巳": 2918,
      "巴": 2919,
      "巷": 2920,
      "巻": 2921,
      "巽": 2922,
      "币": 2923,
      "市": 2924,
      "布": 2925,
      "师": 2926,
      "帕": 2927,
      "帝": 2928,
      "带": 2929,
      "師": 2930,
      "席": 2931,
      "帳": 2932,
      "常": 2933,
      "幌": 2934,
      "幣": 2935,
      "干": 2936,
      "平": 2937,
      "年": 2938,
      "幸": 2939,
      "幹": 2940,
      "幻": 2941,
      "庁": 2942,
      "庆": 2943,
      "床": 2944,
      "序": 2945,
      "庐": 2946,
      "库": 2947,
      "应": 2948,
      "底": 2949,
      "店": 2950,
      "府": 2951,
      "度": 2952,
      "座": 2953,
      "庫": 2954,
      "庭": 2955,
      "庵": 2956,
      "康": 2957,
      "廉": 2958,
      "廟": 2959,
      "廣": 2960,
      "延": 2961,
      "廷": 2962,
      "建": 2963,
      "开": 2964,
      "弁": 2965,
      "异": 2966,
      "式": 2967,
      "引": 2968,
      "弗": 2969,
      "弘": 2970,
      "弟": 2971,
      "张": 2972,
      "弥": 2973,
      "弩": 2974,
      "張": 2975,
      "强": 2976,
      "弼": 2977,
      "弾": 2978,
      "彈": 2979,
      "彌": 2980,
      "当": 2981,
      "彙": 2982,
      "彝": 2983,
      "形": 2984,
      "彦": 2985,
      "彩": 2986,
      "彪": 2987,
      "彫": 2988,
      "影": 2989,
      "彼": 2990,
      "往": 2991,
      "待": 2992,
      "律": 2993,
      "後": 2994,
      "徐": 2995,
      "徒": 2996,
      "従": 2997,
      "得": 2998,
      "御": 2999,
      "復": 3000,
      "微": 3001,
      "徳": 3002,
      "德": 3003,
      "徹": 3004,
      "徽": 3005,
      "心": 3006,
      "忍": 3007,
      "志": 3008,
      "忘": 3009,
      "応": 3010,
      "忠": 3011,
      "快": 3012,
      "念": 3013,
      "忽": 3014,
      "怀": 3015,
      "怛": 3016,
      "思": 3017,
      "急": 3018,
      "性": 3019,
      "怨": 3020,
      "怪": 3021,
      "恃": 3022,
      "恆": 3023,
      "恋": 3024,
      "恐": 3025,
      "恒": 3026,
      "恩": 3027,
      "息": 3028,
      "恵": 3029,
      "悉": 3030,
      "悒": 3031,
      "悔": 3032,
      "悝": 3033,
      "悦": 3034,
      "悪": 3035,
      "悲": 3036,
      "悼": 3037,
      "情": 3038,
      "惠": 3039,
      "想": 3040,
      "愃": 3041,
      "意": 3042,
      "愚": 3043,
      "愛": 3044,
      "感": 3045,
      "慈": 3046,
      "慎": 3047,
      "慕": 3048,
      "慧": 3049,
      "慰": 3050,
      "慶": 3051,
      "憑": 3052,
      "憤": 3053,
      "憲": 3054,
      "應": 3055,
      "懐": 3056,
      "懶": 3057,
      "懷": 3058,
      "懿": 3059,
      "戀": 3060,
      "戏": 3061,
      "成": 3062,
      "我": 3063,
      "戒": 3064,
      "战": 3065,
      "戛": 3066,
      "戦": 3067,
      "戰": 3068,
      "戱": 3069,
      "戲": 3070,
      "戶": 3071,
      "户": 3072,
      "戸": 3073,
      "房": 3074,
      "所": 3075,
      "手": 3076,
      "扎": 3077,
      "打": 3078,
      "托": 3079,
      "扢": 3080,
      "扬": 3081,
      "扶": 3082,
      "批": 3083,
      "承": 3084,
      "技": 3085,
      "抄": 3086,
      "投": 3087,
      "折": 3088,
      "択": 3089,
      "护": 3090,
      "抵": 3091,
      "抽": 3092,
      "拉": 3093,
      "拋": 3094,
      "拍": 3095,
      "拏": 3096,
      "拐": 3097,
      "拓": 3098,
      "拔": 3099,
      "拘": 3100,
      "招": 3101,
      "拜": 3102,
      "拝": 3103,
      "拟": 3104,
      "括": 3105,
      "拳": 3106,
      "拼": 3107,
      "拾": 3108,
      "持": 3109,
      "指": 3110,
      "捉": 3111,
      "捊": 3112,
      "捐": 3113,
      "捲": 3114,
      "掌": 3115,
      "排": 3116,
      "掘": 3117,
      "掛": 3118,
      "探": 3119,
      "接": 3120,
      "推": 3121,
      "掻": 3122,
      "揆": 3123,
      "提": 3124,
      "插": 3125,
      "揚": 3126,
      "換": 3127,
      "握": 3128,
      "揵": 3129,
      "摄": 3130,
      "摊": 3131,
      "摩": 3132,
      "摸": 3133,
      "撃": 3134,
      "撑": 3135,
      "撒": 3136,
      "撲": 3137,
      "擊": 3138,
      "操": 3139,
      "擒": 3140,
      "攣": 3141,
      "支": 3142,
      "改": 3143,
      "攻": 3144,
      "放": 3145,
      "政": 3146,
      "故": 3147,
      "敎": 3148,
      "敏": 3149,
      "救": 3150,
      "敗": 3151,
      "教": 3152,
      "敞": 3153,
      "散": 3154,
      "敦": 3155,
      "敬": 3156,
      "数": 3157,
      "整": 3158,
      "敵": 3159,
      "敷": 3160,
      "數": 3161,
      "文": 3162,
      "斉": 3163,
      "斐": 3164,
      "料": 3165,
      "斛": 3166,
      "斡": 3167,
      "斤": 3168,
      "斯": 3169,
      "新": 3170,
      "方": 3171,
      "於": 3172,
      "施": 3173,
      "旃": 3174,
      "旅": 3175,
      "旋": 3176,
      "族": 3177,
      "旗": 3178,
      "无": 3179,
      "日": 3180,
      "旦": 3181,
      "旧": 3182,
      "旭": 3183,
      "旱": 3184,
      "旺": 3185,
      "昆": 3186,
      "昌": 3187,
      "明": 3188,
      "易": 3189,
      "昔": 3190,
      "星": 3191,
      "映": 3192,
      "春": 3193,
      "昭": 3194,
      "是": 3195,
      "显": 3196,
      "時": 3197,
      "晃": 3198,
      "晉": 3199,
      "晋": 3200,
      "晒": 3201,
      "晓": 3202,
      "普": 3203,
      "景": 3204,
      "晶": 3205,
      "智": 3206,
      "暂": 3207,
      "暕": 3208,
      "暖": 3209,
      "暗": 3210,
      "暦": 3211,
      "暲": 3212,
      "暾": 3213,
      "曉": 3214,
      "曜": 3215,
      "曝": 3216,
      "曲": 3217,
      "曷": 3218,
      "書": 3219,
      "曹": 3220,
      "曼": 3221,
      "最": 3222,
      "會": 3223,
      "月": 3224,
      "有": 3225,
      "服": 3226,
      "朗": 3227,
      "望": 3228,
      "朝": 3229,
      "期": 3230,
      "木": 3231,
      "末": 3232,
      "本": 3233,
      "札": 3234,
      "朮": 3235,
      "术": 3236,
      "朱": 3237,
      "朴": 3238,
      "机": 3239,
      "杀": 3240,
      "权": 3241,
      "杉": 3242,
      "李": 3243,
      "材": 3244,
      "村": 3245,
      "杜": 3246,
      "条": 3247,
      "来": 3248,
      "杭": 3249,
      "杯": 3250,
      "東": 3251,
      "松": 3252,
      "极": 3253,
      "林": 3254,
      "果": 3255,
      "枝": 3256,
      "柏": 3257,
      "柒": 3258,
      "柔": 3259,
      "柚": 3260,
      "柯": 3261,
      "柱": 3262,
      "柳": 3263,
      "柴": 3264,
      "査": 3265,
      "柿": 3266,
      "树": 3267,
      "校": 3268,
      "株": 3269,
      "样": 3270,
      "根": 3271,
      "格": 3272,
      "桃": 3273,
      "案": 3274,
      "桑": 3275,
      "桓": 3276,
      "桜": 3277,
      "档": 3278,
      "梁": 3279,
      "梅": 3280,
      "梦": 3281,
      "梨": 3282,
      "梯": 3283,
      "梵": 3284,
      "梶": 3285,
      "棋": 3286,
      "棠": 3287,
      "棧": 3288,
      "森": 3289,
      "植": 3290,
      "楊": 3291,
      "楓": 3292,
      "楚": 3293,
      "楞": 3294,
      "楢": 3295,
      "業": 3296,
      "極": 3297,
      "楼": 3298,
      "楽": 3299,
      "概": 3300,
      "榆": 3301,
      "榉": 3302,
      "榜": 3303,
      "榴": 3304,
      "槃": 3305,
      "槐": 3306,
      "様": 3307,
      "槻": 3308,
      "樂": 3309,
      "樓": 3310,
      "標": 3311,
      "樣": 3312,
      "権": 3313,
      "横": 3314,
      "樵": 3315,
      "樹": 3316,
      "橋": 3317,
      "機": 3318,
      "橫": 3319,
      "檀": 3320,
      "檔": 3321,
      "櫸": 3322,
      "欅": 3323,
      "權": 3324,
      "次": 3325,
      "欢": 3326,
      "欧": 3327,
      "欲": 3328,
      "欽": 3329,
      "歇": 3330,
      "歌": 3331,
      "正": 3332,
      "步": 3333,
      "武": 3334,
      "歩": 3335,
      "歲": 3336,
      "歳": 3337,
      "歴": 3338,
      "歷": 3339,
      "歸": 3340,
      "死": 3341,
      "歼": 3342,
      "殊": 3343,
      "残": 3344,
      "殲": 3345,
      "段": 3346,
      "殺": 3347,
      "殼": 3348,
      "殿": 3349,
      "母": 3350,
      "毒": 3351,
      "比": 3352,
      "毗": 3353,
      "毘": 3354,
      "毛": 3355,
      "毫": 3356,
      "氏": 3357,
      "民": 3358,
      "気": 3359,
      "氟": 3360,
      "氣": 3361,
      "氧": 3362,
      "氯": 3363,
      "水": 3364,
      "氷": 3365,
      "永": 3366,
      "汁": 3367,
      "求": 3368,
      "汉": 3369,
      "汗": 3370,
      "汝": 3371,
      "江": 3372,
      "池": 3373,
      "污": 3374,
      "汨": 3375,
      "汪": 3376,
      "汶": 3377,
      "決": 3378,
      "汽": 3379,
      "沁": 3380,
      "沈": 3381,
      "沌": 3382,
      "沒": 3383,
      "沖": 3384,
      "沙": 3385,
      "沛": 3386,
      "沟": 3387,
      "没": 3388,
      "沢": 3389,
      "沫": 3390,
      "沱": 3391,
      "河": 3392,
      "油": 3393,
      "治": 3394,
      "沿": 3395,
      "泉": 3396,
      "法": 3397,
      "泛": 3398,
      "波": 3399,
      "泣": 3400,
      "泥": 3401,
      "注": 3402,
      "泰": 3403,
      "泽": 3404,
      "洋": 3405,
      "洛": 3406,
      "洞": 3407,
      "津": 3408,
      "洪": 3409,
      "洲": 3410,
      "活": 3411,
      "流": 3412,
      "浄": 3413,
      "浅": 3414,
      "济": 3415,
      "浙": 3416,
      "浪": 3417,
      "浮": 3418,
      "浴": 3419,
      "海": 3420,
      "涅": 3421,
      "涉": 3422,
      "涙": 3423,
      "涵": 3424,
      "淀": 3425,
      "淑": 3426,
      "深": 3427,
      "淵": 3428,
      "混": 3429,
      "淸": 3430,
      "清": 3431,
      "済": 3432,
      "減": 3433,
      "渝": 3434,
      "渡": 3435,
      "渤": 3436,
      "渥": 3437,
      "温": 3438,
      "港": 3439,
      "渾": 3440,
      "湖": 3441,
      "湘": 3442,
      "湯": 3443,
      "湿": 3444,
      "満": 3445,
      "源": 3446,
      "準": 3447,
      "溝": 3448,
      "溪": 3449,
      "溫": 3450,
      "溯": 3451,
      "滅": 3452,
      "滇": 3453,
      "滝": 3454,
      "满": 3455,
      "滿": 3456,
      "漁": 3457,
      "漉": 3458,
      "演": 3459,
      "漠": 3460,
      "漢": 3461,
      "漫": 3462,
      "漱": 3463,
      "潭": 3464,
      "潮": 3465,
      "潰": 3466,
      "澄": 3467,
      "澤": 3468,
      "澳": 3469,
      "激": 3470,
      "濕": 3471,
      "濟": 3472,
      "濠": 3473,
      "瀛": 3474,
      "瀬": 3475,
      "灢": 3476,
      "灣": 3477,
      "火": 3478,
      "灯": 3479,
      "灵": 3480,
      "灼": 3481,
      "炖": 3482,
      "炮": 3483,
      "炯": 3484,
      "点": 3485,
      "為": 3486,
      "烈": 3487,
      "烏": 3488,
      "烟": 3489,
      "热": 3490,
      "焉": 3491,
      "焗": 3492,
      "無": 3493,
      "焦": 3494,
      "焼": 3495,
      "煎": 3496,
      "煙": 3497,
      "照": 3498,
      "煮": 3499,
      "熊": 3500,
      "熙": 3501,
      "熟": 3502,
      "熱": 3503,
      "燊": 3504,
      "燒": 3505,
      "爆": 3506,
      "爪": 3507,
      "爭": 3508,
      "爱": 3509,
      "爲": 3510,
      "父": 3511,
      "爺": 3512,
      "爾": 3513,
      "牆": 3514,
      "版": 3515,
      "牙": 3516,
      "牛": 3517,
      "牟": 3518,
      "物": 3519,
      "牸": 3520,
      "特": 3521,
      "牽": 3522,
      "犁": 3523,
      "状": 3524,
      "狀": 3525,
      "狂": 3526,
      "狄": 3527,
      "狐": 3528,
      "狗": 3529,
      "狩": 3530,
      "独": 3531,
      "狭": 3532,
      "狼": 3533,
      "猪": 3534,
      "猴": 3535,
      "猿": 3536,
      "獄": 3537,
      "獅": 3538,
      "獨": 3539,
      "獵": 3540,
      "獸": 3541,
      "獻": 3542,
      "玄": 3543,
      "玉": 3544,
      "王": 3545,
      "玗": 3546,
      "玛": 3547,
      "玮": 3548,
      "环": 3549,
      "现": 3550,
      "玲": 3551,
      "珍": 3552,
      "珠": 3553,
      "珪": 3554,
      "班": 3555,
      "現": 3556,
      "球": 3557,
      "理": 3558,
      "琉": 3559,
      "琴": 3560,
      "瑞": 3561,
      "瑠": 3562,
      "瑪": 3563,
      "璃": 3564,
      "璇": 3565,
      "璋": 3566,
      "璝": 3567,
      "璥": 3568,
      "環": 3569,
      "瓌": 3570,
      "瓢": 3571,
      "甘": 3572,
      "生": 3573,
      "產": 3574,
      "産": 3575,
      "甦": 3576,
      "用": 3577,
      "甫": 3578,
      "田": 3579,
      "由": 3580,
      "甲": 3581,
      "电": 3582,
      "男": 3583,
      "町": 3584,
      "画": 3585,
      "界": 3586,
      "畑": 3587,
      "留": 3588,
      "畢": 3589,
      "略": 3590,
      "番": 3591,
      "畫": 3592,
      "異": 3593,
      "畵": 3594,
      "畿": 3595,
      "疆": 3596,
      "疊": 3597,
      "疏": 3598,
      "疾": 3599,
      "病": 3600,
      "療": 3601,
      "癡": 3602,
      "癲": 3603,
      "登": 3604,
      "白": 3605,
      "百": 3606,
      "的": 3607,
      "皇": 3608,
      "皋": 3609,
      "皝": 3610,
      "盂": 3611,
      "盅": 3612,
      "盆": 3613,
      "益": 3614,
      "盖": 3615,
      "盛": 3616,
      "盟": 3617,
      "盡": 3618,
      "監": 3619,
      "盧": 3620,
      "目": 3621,
      "直": 3622,
      "相": 3623,
      "省": 3624,
      "看": 3625,
      "県": 3626,
      "眞": 3627,
      "真": 3628,
      "眺": 3629,
      "眼": 3630,
      "督": 3631,
      "睦": 3632,
      "睿": 3633,
      "瞞": 3634,
      "瞳": 3635,
      "瞿": 3636,
      "知": 3637,
      "矩": 3638,
      "石": 3639,
      "砂": 3640,
      "研": 3641,
      "砲": 3642,
      "碍": 3643,
      "碎": 3644,
      "碑": 3645,
      "碗": 3646,
      "碧": 3647,
      "碳": 3648,
      "確": 3649,
      "磐": 3650,
      "磚": 3651,
      "磨": 3652,
      "磯": 3653,
      "磷": 3654,
      "示": 3655,
      "礼": 3656,
      "社": 3657,
      "祀": 3658,
      "祁": 3659,
      "祅": 3660,
      "祇": 3661,
      "祈": 3662,
      "祐": 3663,
      "祖": 3664,
      "祝": 3665,
      "神": 3666,
      "祥": 3667,
      "祭": 3668,
      "祿": 3669,
      "禁": 3670,
      "禄": 3671,
      "福": 3672,
      "禧": 3673,
      "禮": 3674,
      "禹": 3675,
      "秀": 3676,
      "私": 3677,
      "秋": 3678,
      "科": 3679,
      "秒": 3680,
      "秘": 3681,
      "秦": 3682,
      "移": 3683,
      "程": 3684,
      "種": 3685,
      "稻": 3686,
      "稽": 3687,
      "穀": 3688,
      "穂": 3689,
      "穆": 3690,
      "穴": 3691,
      "究": 3692,
      "空": 3693,
      "突": 3694,
      "窓": 3695,
      "窟": 3696,
      "立": 3697,
      "站": 3698,
      "竜": 3699,
      "章": 3700,
      "竣": 3701,
      "童": 3702,
      "竭": 3703,
      "端": 3704,
      "競": 3705,
      "竹": 3706,
      "笑": 3707,
      "笠": 3708,
      "符": 3709,
      "第": 3710,
      "笹": 3711,
      "等": 3712,
      "策": 3713,
      "筷": 3714,
      "简": 3715,
      "箏": 3716,
      "算": 3717,
      "管": 3718,
      "箪": 3719,
      "箱": 3720,
      "箸": 3721,
      "節": 3722,
      "篇": 3723,
      "篭": 3724,
      "簡": 3725,
      "簧": 3726,
      "簪": 3727,
      "籌": 3728,
      "籠": 3729,
      "米": 3730,
      "粉": 3731,
      "粒": 3732,
      "粗": 3733,
      "粘": 3734,
      "粟": 3735,
      "粥": 3736,
      "粲": 3737,
      "粽": 3738,
      "精": 3739,
      "糕": 3740,
      "糖": 3741,
      "系": 3742,
      "紀": 3743,
      "約": 3744,
      "紅": 3745,
      "紇": 3746,
      "納": 3747,
      "純": 3748,
      "紙": 3749,
      "級": 3750,
      "素": 3751,
      "索": 3752,
      "紫": 3753,
      "細": 3754,
      "紹": 3755,
      "終": 3756,
      "絃": 3757,
      "組": 3758,
      "経": 3759,
      "結": 3760,
      "絕": 3761,
      "絢": 3762,
      "統": 3763,
      "絵": 3764,
      "經": 3765,
      "続": 3766,
      "綜": 3767,
      "維": 3768,
      "網": 3769,
      "綽": 3770,
      "綾": 3771,
      "緊": 3772,
      "総": 3773,
      "緑": 3774,
      "線": 3775,
      "編": 3776,
      "練": 3777,
      "縁": 3778,
      "縄": 3779,
      "縣": 3780,
      "縦": 3781,
      "縱": 3782,
      "繁": 3783,
      "織": 3784,
      "繕": 3785,
      "繩": 3786,
      "繼": 3787,
      "纂": 3788,
      "續": 3789,
      "红": 3790,
      "纥": 3791,
      "约": 3792,
      "级": 3793,
      "纪": 3794,
      "纳": 3795,
      "纽": 3796,
      "经": 3797,
      "编": 3798,
      "缽": 3799,
      "网": 3800,
      "罕": 3801,
      "罗": 3802,
      "罵": 3803,
      "羅": 3804,
      "羆": 3805,
      "羊": 3806,
      "羌": 3807,
      "美": 3808,
      "群": 3809,
      "義": 3810,
      "羯": 3811,
      "羽": 3812,
      "羿": 3813,
      "翁": 3814,
      "翖": 3815,
      "翳": 3816,
      "翼": 3817,
      "耀": 3818,
      "老": 3819,
      "考": 3820,
      "者": 3821,
      "而": 3822,
      "耳": 3823,
      "耶": 3824,
      "耽": 3825,
      "聂": 3826,
      "联": 3827,
      "聖": 3828,
      "聞": 3829,
      "聟": 3830,
      "聯": 3831,
      "聲": 3832,
      "肅": 3833,
      "肉": 3834,
      "肯": 3835,
      "育": 3836,
      "背": 3837,
      "胡": 3838,
      "胤": 3839,
      "能": 3840,
      "脇": 3841,
      "脈": 3842,
      "脉": 3843,
      "脍": 3844,
      "脫": 3845,
      "腐": 3846,
      "腹": 3847,
      "腾": 3848,
      "膾": 3849,
      "臈": 3850,
      "臟": 3851,
      "臣": 3852,
      "臥": 3853,
      "臨": 3854,
      "自": 3855,
      "至": 3856,
      "臺": 3857,
      "舅": 3858,
      "與": 3859,
      "興": 3860,
      "舊": 3861,
      "舌": 3862,
      "舍": 3863,
      "舎": 3864,
      "舖": 3865,
      "舜": 3866,
      "舞": 3867,
      "航": 3868,
      "般": 3869,
      "船": 3870,
      "良": 3871,
      "色": 3872,
      "艺": 3873,
      "节": 3874,
      "芋": 3875,
      "芭": 3876,
      "花": 3877,
      "芸": 3878,
      "芹": 3879,
      "苏": 3880,
      "苑": 3881,
      "苔": 3882,
      "若": 3883,
      "苦": 3884,
      "英": 3885,
      "苻": 3886,
      "苾": 3887,
      "茂": 3888,
      "茄": 3889,
      "茲": 3890,
      "茶": 3891,
      "荃": 3892,
      "草": 3893,
      "荒": 3894,
      "莊": 3895,
      "莎": 3896,
      "莢": 3897,
      "莫": 3898,
      "菊": 3899,
      "菩": 3900,
      "華": 3901,
      "菱": 3902,
      "菴": 3903,
      "萨": 3904,
      "萬": 3905,
      "落": 3906,
      "葉": 3907,
      "著": 3908,
      "葛": 3909,
      "董": 3910,
      "葵": 3911,
      "蒙": 3912,
      "蒲": 3913,
      "蒸": 3914,
      "蒼": 3915,
      "蓋": 3916,
      "蓝": 3917,
      "蓮": 3918,
      "蔘": 3919,
      "蔡": 3920,
      "蔵": 3921,
      "蕎": 3922,
      "蕭": 3923,
      "薄": 3924,
      "薛": 3925,
      "薩": 3926,
      "薪": 3927,
      "薬": 3928,
      "藍": 3929,
      "藏": 3930,
      "藝": 3931,
      "藤": 3932,
      "藥": 3933,
      "藻": 3934,
      "蘇": 3935,
      "蘭": 3936,
      "虎": 3937,
      "虚": 3938,
      "號": 3939,
      "虢": 3940,
      "虫": 3941,
      "蚌": 3942,
      "蚤": 3943,
      "蚩": 3944,
      "蛇": 3945,
      "蛙": 3946,
      "蛛": 3947,
      "蛟": 3948,
      "蛮": 3949,
      "蜂": 3950,
      "蜘": 3951,
      "蜜": 3952,
      "蜥": 3953,
      "蜴": 3954,
      "蝗": 3955,
      "蝦": 3956,
      "融": 3957,
      "螺": 3958,
      "蟬": 3959,
      "蟲": 3960,
      "蟻": 3961,
      "血": 3962,
      "衆": 3963,
      "行": 3964,
      "術": 3965,
      "衛": 3966,
      "衞": 3967,
      "衡": 3968,
      "衣": 3969,
      "表": 3970,
      "衾": 3971,
      "袁": 3972,
      "被": 3973,
      "裂": 3974,
      "裝": 3975,
      "裡": 3976,
      "裴": 3977,
      "裸": 3978,
      "製": 3979,
      "褆": 3980,
      "複": 3981,
      "褥": 3982,
      "襄": 3983,
      "襖": 3984,
      "襲": 3985,
      "西": 3986,
      "要": 3987,
      "覆": 3988,
      "見": 3989,
      "規": 3990,
      "視": 3991,
      "覧": 3992,
      "親": 3993,
      "観": 3994,
      "覺": 3995,
      "觀": 3996,
      "角": 3997,
      "解": 3998,
      "言": 3999,
      "訇": 4000,
      "計": 4001,
      "訓": 4002,
      "訖": 4003,
      "記": 4004,
      "訥": 4005,
      "訪": 4006,
      "設": 4007,
      "許": 4008,
      "診": 4009,
      "詠": 4010,
      "詩": 4011,
      "詰": 4012,
      "話": 4013,
      "誓": 4014,
      "語": 4015,
      "說": 4016,
      "説": 4017,
      "読": 4018,
      "課": 4019,
      "調": 4020,
      "談": 4021,
      "諍": 4022,
      "論": 4023,
      "諫": 4024,
      "諸": 4025,
      "諾": 4026,
      "謀": 4027,
      "謙": 4028,
      "講": 4029,
      "謝": 4030,
      "謠": 4031,
      "謨": 4032,
      "識": 4033,
      "警": 4034,
      "議": 4035,
      "護": 4036,
      "變": 4037,
      "讓": 4038,
      "订": 4039,
      "让": 4040,
      "讯": 4041,
      "记": 4042,
      "许": 4043,
      "译": 4044,
      "试": 4045,
      "诗": 4046,
      "话": 4047,
      "语": 4048,
      "谊": 4049,
      "谟": 4050,
      "谷": 4051,
      "豆": 4052,
      "豊": 4053,
      "豚": 4054,
      "象": 4055,
      "豪": 4056,
      "豹": 4057,
      "貝": 4058,
      "貞": 4059,
      "財": 4060,
      "貢": 4061,
      "販": 4062,
      "貫": 4063,
      "責": 4064,
      "貿": 4065,
      "賀": 4066,
      "賊": 4067,
      "賓": 4068,
      "賞": 4069,
      "賢": 4070,
      "賣": 4071,
      "賦": 4072,
      "質": 4073,
      "贝": 4074,
      "质": 4075,
      "贵": 4076,
      "贸": 4077,
      "费": 4078,
      "贺": 4079,
      "资": 4080,
      "赉": 4081,
      "赞": 4082,
      "赤": 4083,
      "走": 4084,
      "赵": 4085,
      "起": 4086,
      "趁": 4087,
      "超": 4088,
      "越": 4089,
      "趙": 4090,
      "足": 4091,
      "跋": 4092,
      "跌": 4093,
      "路": 4094,
      "跳": 4095,
      "践": 4096,
      "蹴": 4097,
      "身": 4098,
      "躬": 4099,
      "車": 4100,
      "軍": 4101,
      "軒": 4102,
      "転": 4103,
      "載": 4104,
      "輝": 4105,
      "輩": 4106,
      "輸": 4107,
      "轉": 4108,
      "车": 4109,
      "轩": 4110,
      "输": 4111,
      "辛": 4112,
      "辞": 4113,
      "辩": 4114,
      "边": 4115,
      "込": 4116,
      "达": 4117,
      "迁": 4118,
      "迎": 4119,
      "运": 4120,
      "近": 4121,
      "还": 4122,
      "连": 4123,
      "迦": 4124,
      "迭": 4125,
      "迷": 4126,
      "追": 4127,
      "送": 4128,
      "透": 4129,
      "通": 4130,
      "逝": 4131,
      "逞": 4132,
      "速": 4133,
      "造": 4134,
      "連": 4135,
      "進": 4136,
      "逸": 4137,
      "逻": 4138,
      "遁": 4139,
      "遂": 4140,
      "遊": 4141,
      "運": 4142,
      "過": 4143,
      "道": 4144,
      "達": 4145,
      "遠": 4146,
      "遲": 4147,
      "遵": 4148,
      "遷": 4149,
      "選": 4150,
      "遼": 4151,
      "還": 4152,
      "邊": 4153,
      "邏": 4154,
      "那": 4155,
      "邦": 4156,
      "邪": 4157,
      "邲": 4158,
      "邵": 4159,
      "郁": 4160,
      "郎": 4161,
      "郑": 4162,
      "郡": 4163,
      "部": 4164,
      "郭": 4165,
      "郷": 4166,
      "都": 4167,
      "鄂": 4168,
      "鄕": 4169,
      "鄧": 4170,
      "鄭": 4171,
      "配": 4172,
      "酒": 4173,
      "酸": 4174,
      "醉": 4175,
      "醋": 4176,
      "醒": 4177,
      "醪": 4178,
      "采": 4179,
      "釈": 4180,
      "釋": 4181,
      "里": 4182,
      "重": 4183,
      "野": 4184,
      "量": 4185,
      "金": 4186,
      "釜": 4187,
      "針": 4188,
      "釣": 4189,
      "鉄": 4190,
      "鉉": 4191,
      "鉢": 4192,
      "銀": 4193,
      "銃": 4194,
      "銅": 4195,
      "銭": 4196,
      "錦": 4197,
      "録": 4198,
      "鍾": 4199,
      "鎧": 4200,
      "鎭": 4201,
      "鎮": 4202,
      "鏡": 4203,
      "鏢": 4204,
      "鐵": 4205,
      "鑑": 4206,
      "鑠": 4207,
      "鑫": 4208,
      "钤": 4209,
      "钦": 4210,
      "钵": 4211,
      "铁": 4212,
      "锦": 4213,
      "镇": 4214,
      "長": 4215,
      "长": 4216,
      "門": 4217,
      "閂": 4218,
      "開": 4219,
      "閑": 4220,
      "間": 4221,
      "関": 4222,
      "閣": 4223,
      "閻": 4224,
      "闍": 4225,
      "闖": 4226,
      "關": 4227,
      "闡": 4228,
      "门": 4229,
      "问": 4230,
      "闰": 4231,
      "阙": 4232,
      "阪": 4233,
      "防": 4234,
      "阳": 4235,
      "阶": 4236,
      "阿": 4237,
      "陀": 4238,
      "际": 4239,
      "陆": 4240,
      "陈": 4241,
      "降": 4242,
      "限": 4243,
      "陕": 4244,
      "陟": 4245,
      "院": 4246,
      "陰": 4247,
      "陳": 4248,
      "陵": 4249,
      "陶": 4250,
      "陸": 4251,
      "陽": 4252,
      "隅": 4253,
      "隆": 4254,
      "隊": 4255,
      "隋": 4256,
      "随": 4257,
      "隔": 4258,
      "隙": 4259,
      "際": 4260,
      "障": 4261,
      "隠": 4262,
      "險": 4263,
      "隱": 4264,
      "雀": 4265,
      "雁": 4266,
      "雄": 4267,
      "雅": 4268,
      "集": 4269,
      "雇": 4270,
      "雑": 4271,
      "雜": 4272,
      "雞": 4273,
      "離": 4274,
      "難": 4275,
      "雨": 4276,
      "雪": 4277,
      "雯": 4278,
      "雲": 4279,
      "雷": 4280,
      "電": 4281,
      "雾": 4282,
      "震": 4283,
      "霊": 4284,
      "霍": 4285,
      "霧": 4286,
      "霫": 4287,
      "霸": 4288,
      "霹": 4289,
      "靂": 4290,
      "靈": 4291,
      "靑": 4292,
      "青": 4293,
      "靜": 4294,
      "面": 4295,
      "革": 4296,
      "靴": 4297,
      "鞅": 4298,
      "鞠": 4299,
      "鞬": 4300,
      "鞮": 4301,
      "韋": 4302,
      "韓": 4303,
      "韦": 4304,
      "韩": 4305,
      "音": 4306,
      "韻": 4307,
      "頁": 4308,
      "頂": 4309,
      "順": 4310,
      "須": 4311,
      "頊": 4312,
      "頓": 4313,
      "頡": 4314,
      "頭": 4315,
      "額": 4316,
      "類": 4317,
      "顥": 4318,
      "顧": 4319,
      "顺": 4320,
      "颉": 4321,
      "题": 4322,
      "额": 4323,
      "風": 4324,
      "飛": 4325,
      "飞": 4326,
      "食": 4327,
      "飯": 4328,
      "飲": 4329,
      "餅": 4330,
      "餐": 4331,
      "餘": 4332,
      "餠": 4333,
      "餡": 4334,
      "館": 4335,
      "饅": 4336,
      "饑": 4337,
      "馆": 4338,
      "馕": 4339,
      "首": 4340,
      "香": 4341,
      "馨": 4342,
      "馬": 4343,
      "駅": 4344,
      "駆": 4345,
      "駐": 4346,
      "験": 4347,
      "騨": 4348,
      "驒": 4349,
      "驚": 4350,
      "驟": 4351,
      "驥": 4352,
      "马": 4353,
      "骑": 4354,
      "骨": 4355,
      "體": 4356,
      "高": 4357,
      "髪": 4358,
      "鬘": 4359,
      "鬥": 4360,
      "鬼": 4361,
      "魂": 4362,
      "魏": 4363,
      "魔": 4364,
      "魚": 4365,
      "魯": 4366,
      "鮮": 4367,
      "鯰": 4368,
      "鰹": 4369,
      "鲁": 4370,
      "鲍": 4371,
      "鲲": 4372,
      "鳥": 4373,
      "鳳": 4374,
      "鴨": 4375,
      "鴻": 4376,
      "鵑": 4377,
      "鶴": 4378,
      "鶻": 4379,
      "鷄": 4380,
      "鷸": 4381,
      "鷹": 4382,
      "鸞": 4383,
      "鹿": 4384,
      "麗": 4385,
      "麦": 4386,
      "麴": 4387,
      "麵": 4388,
      "麺": 4389,
      "麻": 4390,
      "麿": 4391,
      "黃": 4392,
      "黄": 4393,
      "黑": 4394,
      "黒": 4395,
      "默": 4396,
      "黙": 4397,
      "黛": 4398,
      "點": 4399,
      "黠": 4400,
      "黨": 4401,
      "鼠": 4402,
      "鼻": 4403,
      "齊": 4404,
      "齐": 4405,
      "龍": 4406,
      "龐": 4407,
      "龙": 4408,
      "龜": 4409,
      "ꜜ": 4410,
      "ꜣ": 4411,
      "ꝗ": 4412,
      "ꞌ": 4413,
      "ꞩ": 4414,
      "가": 4415,
      "각": 4416,
      "간": 4417,
      "갈": 4418,
      "감": 4419,
      "갑": 4420,
      "갓": 4421,
      "강": 4422,
      "개": 4423,
      "갱": 4424,
      "거": 4425,
      "검": 4426,
      "게": 4427,
      "견": 4428,
      "결": 4429,
      "겸": 4430,
      "겹": 4431,
      "경": 4432,
      "계": 4433,
      "고": 4434,
      "곡": 4435,
      "곤": 4436,
      "골": 4437,
      "곱": 4438,
      "공": 4439,
      "과": 4440,
      "곽": 4441,
      "관": 4442,
      "광": 4443,
      "괘": 4444,
      "괴": 4445,
      "교": 4446,
      "구": 4447,
      "국": 4448,
      "군": 4449,
      "궁": 4450,
      "권": 4451,
      "귀": 4452,
      "규": 4453,
      "균": 4454,
      "그": 4455,
      "극": 4456,
      "근": 4457,
      "글": 4458,
      "금": 4459,
      "급": 4460,
      "긍": 4461,
      "기": 4462,
      "길": 4463,
      "김": 4464,
      "깃": 4465,
      "까": 4466,
      "깨": 4467,
      "깻": 4468,
      "께": 4469,
      "껸": 4470,
      "꼬": 4471,
      "꽃": 4472,
      "꿀": 4473,
      "꿩": 4474,
      "끝": 4475,
      "끼": 4476,
      "나": 4477,
      "낙": 4478,
      "난": 4479,
      "날": 4480,
      "남": 4481,
      "내": 4482,
      "낸": 4483,
      "냉": 4484,
      "너": 4485,
      "넌": 4486,
      "널": 4487,
      "넬": 4488,
      "넷": 4489,
      "녀": 4490,
      "년": 4491,
      "념": 4492,
      "녕": 4493,
      "노": 4494,
      "논": 4495,
      "놀": 4496,
      "농": 4497,
      "눌": 4498,
      "느": 4499,
      "는": 4500,
      "늘": 4501,
      "니": 4502,
      "님": 4503,
      "닝": 4504,
      "다": 4505,
      "단": 4506,
      "달": 4507,
      "닭": 4508,
      "담": 4509,
      "답": 4510,
      "당": 4511,
      "대": 4512,
      "더": 4513,
      "덕": 4514,
      "덟": 4515,
      "데": 4516,
      "도": 4517,
      "독": 4518,
      "돌": 4519,
      "동": 4520,
      "됐": 4521,
      "된": 4522,
      "두": 4523,
      "둔": 4524,
      "둘": 4525,
      "드": 4526,
      "들": 4527,
      "등": 4528,
      "디": 4529,
      "딩": 4530,
      "떡": 4531,
      "떤": 4532,
      "떻": 4533,
      "또": 4534,
      "뛰": 4535,
      "라": 4536,
      "락": 4537,
      "란": 4538,
      "람": 4539,
      "랑": 4540,
      "래": 4541,
      "러": 4542,
      "런": 4543,
      "럼": 4544,
      "렐": 4545,
      "려": 4546,
      "력": 4547,
      "련": 4548,
      "령": 4549,
      "례": 4550,
      "로": 4551,
      "록": 4552,
      "론": 4553,
      "뢰": 4554,
      "룡": 4555,
      "루": 4556,
      "룹": 4557,
      "류": 4558,
      "륙": 4559,
      "르": 4560,
      "를": 4561,
      "름": 4562,
      "릉": 4563,
      "리": 4564,
      "릭": 4565,
      "린": 4566,
      "림": 4567,
      "립": 4568,
      "마": 4569,
      "막": 4570,
      "만": 4571,
      "말": 4572,
      "망": 4573,
      "맞": 4574,
      "매": 4575,
      "맥": 4576,
      "맨": 4577,
      "머": 4578,
      "메": 4579,
      "며": 4580,
      "면": 4581,
      "명": 4582,
      "모": 4583,
      "목": 4584,
      "몰": 4585,
      "몸": 4586,
      "못": 4587,
      "몽": 4588,
      "묘": 4589,
      "무": 4590,
      "묵": 4591,
      "문": 4592,
      "물": 4593,
      "뭔": 4594,
      "뮤": 4595,
      "믐": 4596,
      "미": 4597,
      "민": 4598,
      "밀": 4599,
      "및": 4600,
      "바": 4601,
      "박": 4602,
      "반": 4603,
      "발": 4604,
      "밝": 4605,
      "밥": 4606,
      "방": 4607,
      "밭": 4608,
      "배": 4609,
      "백": 4610,
      "뱀": 4611,
      "뱅": 4612,
      "버": 4613,
      "번": 4614,
      "벌": 4615,
      "범": 4616,
      "법": 4617,
      "벚": 4618,
      "베": 4619,
      "벤": 4620,
      "변": 4621,
      "별": 4622,
      "병": 4623,
      "보": 4624,
      "복": 4625,
      "볶": 4626,
      "본": 4627,
      "봄": 4628,
      "봇": 4629,
      "봉": 4630,
      "봐": 4631,
      "부": 4632,
      "북": 4633,
      "분": 4634,
      "불": 4635,
      "붐": 4636,
      "뷔": 4637,
      "브": 4638,
      "븐": 4639,
      "블": 4640,
      "비": 4641,
      "빅": 4642,
      "빈": 4643,
      "빔": 4644,
      "빵": 4645,
      "사": 4646,
      "산": 4647,
      "살": 4648,
      "삼": 4649,
      "삽": 4650,
      "상": 4651,
      "색": 4652,
      "생": 4653,
      "샤": 4654,
      "서": 4655,
      "석": 4656,
      "선": 4657,
      "섣": 4658,
      "설": 4659,
      "섭": 4660,
      "섯": 4661,
      "성": 4662,
      "세": 4663,
      "센": 4664,
      "셈": 4665,
      "션": 4666,
      "셧": 4667,
      "소": 4668,
      "속": 4669,
      "손": 4670,
      "솔": 4671,
      "송": 4672,
      "솥": 4673,
      "수": 4674,
      "숙": 4675,
      "순": 4676,
      "술": 4677,
      "슈": 4678,
      "스": 4679,
      "슨": 4680,
      "슬": 4681,
      "슴": 4682,
      "승": 4683,
      "시": 4684,
      "식": 4685,
      "신": 4686,
      "실": 4687,
      "심": 4688,
      "십": 4689,
      "싸": 4690,
      "쌀": 4691,
      "쌈": 4692,
      "씨": 4693,
      "아": 4694,
      "악": 4695,
      "안": 4696,
      "알": 4697,
      "암": 4698,
      "애": 4699,
      "야": 4700,
      "약": 4701,
      "얀": 4702,
      "양": 4703,
      "얘": 4704,
      "어": 4705,
      "언": 4706,
      "업": 4707,
      "없": 4708,
      "었": 4709,
      "에": 4710,
      "엔": 4711,
      "엘": 4712,
      "여": 4713,
      "역": 4714,
      "연": 4715,
      "열": 4716,
      "염": 4717,
      "엿": 4718,
      "였": 4719,
      "영": 4720,
      "예": 4721,
      "오": 4722,
      "옥": 4723,
      "온": 4724,
      "옹": 4725,
      "와": 4726,
      "완": 4727,
      "왕": 4728,
      "외": 4729,
      "요": 4730,
      "용": 4731,
      "우": 4732,
      "욱": 4733,
      "운": 4734,
      "울": 4735,
      "움": 4736,
      "웅": 4737,
      "원": 4738,
      "월": 4739,
      "위": 4740,
      "윈": 4741,
      "유": 4742,
      "육": 4743,
      "윤": 4744,
      "윷": 4745,
      "으": 4746,
      "은": 4747,
      "을": 4748,
      "음": 4749,
      "응": 4750,
      "의": 4751,
      "이": 4752,
      "익": 4753,
      "인": 4754,
      "일": 4755,
      "임": 4756,
      "있": 4757,
      "잎": 4758,
      "자": 4759,
      "잔": 4760,
      "잡": 4761,
      "장": 4762,
      "재": 4763,
      "잭": 4764,
      "쟁": 4765,
      "저": 4766,
      "적": 4767,
      "전": 4768,
      "절": 4769,
      "젓": 4770,
      "정": 4771,
      "제": 4772,
      "젤": 4773,
      "조": 4774,
      "족": 4775,
      "종": 4776,
      "좋": 4777,
      "주": 4778,
      "죽": 4779,
      "준": 4780,
      "줄": 4781,
      "중": 4782,
      "줘": 4783,
      "쥐": 4784,
      "즈": 4785,
      "지": 4786,
      "직": 4787,
      "진": 4788,
      "짇": 4789,
      "질": 4790,
      "집": 4791,
      "짜": 4792,
      "쩔": 4793,
      "쯔": 4794,
      "찌": 4795,
      "차": 4796,
      "찬": 4797,
      "찮": 4798,
      "찰": 4799,
      "참": 4800,
      "창": 4801,
      "채": 4802,
      "처": 4803,
      "천": 4804,
      "철": 4805,
      "첨": 4806,
      "첩": 4807,
      "청": 4808,
      "체": 4809,
      "초": 4810,
      "촌": 4811,
      "총": 4812,
      "최": 4813,
      "추": 4814,
      "축": 4815,
      "춘": 4816,
      "춤": 4817,
      "충": 4818,
      "취": 4819,
      "치": 4820,
      "칙": 4821,
      "친": 4822,
      "칠": 4823,
      "침": 4824,
      "카": 4825,
      "컵": 4826,
      "코": 4827,
      "콘": 4828,
      "쿠": 4829,
      "크": 4830,
      "클": 4831,
      "키": 4832,
      "킹": 4833,
      "타": 4834,
      "탁": 4835,
      "탈": 4836,
      "탐": 4837,
      "탑": 4838,
      "탕": 4839,
      "태": 4840,
      "택": 4841,
      "터": 4842,
      "털": 4843,
      "테": 4844,
      "템": 4845,
      "토": 4846,
      "통": 4847,
      "투": 4848,
      "트": 4849,
      "틀": 4850,
      "티": 4851,
      "팅": 4852,
      "파": 4853,
      "팥": 4854,
      "페": 4855,
      "펠": 4856,
      "편": 4857,
      "평": 4858,
      "폐": 4859,
      "포": 4860,
      "표": 4861,
      "푼": 4862,
      "품": 4863,
      "풍": 4864,
      "프": 4865,
      "픈": 4866,
      "플": 4867,
      "핀": 4868,
      "필": 4869,
      "하": 4870,
      "학": 4871,
      "한": 4872,
      "할": 4873,
      "함": 4874,
      "합": 4875,
      "항": 4876,
      "해": 4877,
      "행": 4878,
      "허": 4879,
      "헌": 4880,
      "혁": 4881,
      "현": 4882,
      "혈": 4883,
      "협": 4884,
      "형": 4885,
      "혜": 4886,
      "호": 4887,
      "홈": 4888,
      "홉": 4889,
      "홍": 4890,
      "화": 4891,
      "환": 4892,
      "활": 4893,
      "황": 4894,
      "회": 4895,
      "효": 4896,
      "후": 4897,
      "훈": 4898,
      "훤": 4899,
      "휘": 4900,
      "휴": 4901,
      "흑": 4902,
      "흠": 4903,
      "흥": 4904,
      "희": 4905,
      "히": 4906,
      "": 4907,
      "": 4908,
      "": 4909,
      "": 4910,
      "": 4911,
      "": 4912,
      "": 4913,
      "": 4914,
      "": 4915,
      "": 4916,
      "": 4917,
      "": 4918,
      "": 4919,
      "": 4920,
      "": 4921,
      "": 4922,
      "": 4923,
      "": 4924,
      "": 4925,
      "": 4926,
      "": 4927,
      "": 4928,
      "": 4929,
      "": 4930,
      "": 4931,
      "": 4932,
      "": 4933,
      "": 4934,
      "": 4935,
      "": 4936,
      "": 4937,
      "": 4938,
      "": 4939,
      "": 4940,
      "": 4941,
      "": 4942,
      "": 4943,
      "": 4944,
      "": 4945,
      "": 4946,
      "": 4947,
      "": 4948,
      "": 4949,
      "": 4950,
      "": 4951,
      "": 4952,
      "": 4953,
      "": 4954,
      "": 4955,
      "": 4956,
      "": 4957,
      "": 4958,
      "": 4959,
      "": 4960,
      "": 4961,
      "": 4962,
      "ﬀ": 4963,
      "ﬁ": 4964,
      "ﬂ": 4965,
      "ﬆ": 4966,
      "ﭘ": 4967,
      "ﭺ": 4968,
      "ﮔ": 4969,
      "ﮦ": 4970,
      "ﮫ": 4971,
      "ﯼ": 4972,
      "ﯾ": 4973,
      "ﯿ": 4974,
      "﴾": 4975,
      "﴿": 4976,
      "ﷺ": 4977,
      "︎": 4978,
      "️": 4979,
      "︠": 4980,
      "︡": 4981,
      "ﺀ": 4982,
      "ﺁ": 4983,
      "ﺂ": 4984,
      "ﺃ": 4985,
      "ﺅ": 4986,
      "ﺆ": 4987,
      "ﺇ": 4988,
      "ﺋ": 4989,
      "ﺌ": 4990,
      "ﺍ": 4991,
      "ﺎ": 4992,
      "ﺏ": 4993,
      "ﺑ": 4994,
      "ﺒ": 4995,
      "ﺓ": 4996,
      "ﺔ": 4997,
      "ﺖ": 4998,
      "ﺗ": 4999,
      "ﺘ": 5000,
      "ﺟ": 5001,
      "ﺠ": 5002,
      "ﺣ": 5003,
      "ﺤ": 5004,
      "ﺥ": 5005,
      "ﺧ": 5006,
      "ﺨ": 5007,
      "ﺩ": 5008,
      "ﺪ": 5009,
      "ﺫ": 5010,
      "ﺬ": 5011,
      "ﺭ": 5012,
      "ﺮ": 5013,
      "ﺯ": 5014,
      "ﺰ": 5015,
      "ﺱ": 5016,
      "ﺲ": 5017,
      "ﺳ": 5018,
      "ﺴ": 5019,
      "ﺷ": 5020,
      "ﺸ": 5021,
      "ﺻ": 5022,
      "ﻀ": 5023,
      "ﻃ": 5024,
      "ﻄ": 5025,
      "ﻆ": 5026,
      "ﻋ": 5027,
      "ﻌ": 5028,
      "ﻏ": 5029,
      "ﻐ": 5030,
      "ﻑ": 5031,
      "ﻓ": 5032,
      "ﻕ": 5033,
      "ﻖ": 5034,
      "ﻗ": 5035,
      "ﻘ": 5036,
      "ﻙ": 5037,
      "ﻚ": 5038,
      "ﻛ": 5039,
      "ﻜ": 5040,
      "ﻝ": 5041,
      "ﻞ": 5042,
      "ﻟ": 5043,
      "ﻠ": 5044,
      "ﻡ": 5045,
      "ﻢ": 5046,
      "ﻣ": 5047,
      "ﻤ": 5048,
      "ﻥ": 5049,
      "ﻦ": 5050,
      "ﻧ": 5051,
      "ﻨ": 5052,
      "ﻪ": 5053,
      "ﻫ": 5054,
      "ﻬ": 5055,
      "ﻭ": 5056,
      "ﻮ": 5057,
      "ﻯ": 5058,
      "ﻰ": 5059,
      "ﻱ": 5060,
      "ﻲ": 5061,
      "ﻳ": 5062,
      "ﻴ": 5063,
      "ﻵ": 5064,
      "ﻻ": 5065,
      "ﻼ": 5066,
      "﻿": 5067,
      "！": 5068,
      "＃": 5069,
      "（": 5070,
      "）": 5071,
      "，": 5072,
      "－": 5073,
      "．": 5074,
      "４": 5075,
      "：": 5076,
      "＝": 5077,
      "Ａ": 5078,
      "Ｃ": 5079,
      "Ｄ": 5080,
      "Ｅ": 5081,
      "Ｈ": 5082,
      "Ｉ": 5083,
      "Ｌ": 5084,
      "Ｓ": 5085,
      "Ｔ": 5086,
      "Ｖ": 5087,
      "～": 5088,
      "￥": 5089,
      "￼": 5090,
      "�": 5091,
      "𐌻": 5092,
      "𐌼": 5093,
      "𐎠": 5094,
      "𐎢": 5095,
      "𐎣": 5096,
      "𐎦": 5097,
      "𐎧": 5098,
      "𐎫": 5099,
      "𐎭": 5100,
      "𐎱": 5101,
      "𐎴": 5102,
      "𐎶": 5103,
      "𐎹": 5104,
      "𐎺": 5105,
      "𐎼": 5106,
      "𐎿": 5107,
      "𐏁": 5108,
      "𐏂": 5109,
      "𐔰": 5110,
      "𐔱": 5111,
      "𐔲": 5112,
      "𐔳": 5113,
      "𐔴": 5114,
      "𐔵": 5115,
      "𐔶": 5116,
      "𐔷": 5117,
      "𐔸": 5118,
      "𐔹": 5119,
      "𐔺": 5120,
      "𐔻": 5121,
      "𐔼": 5122,
      "𐔽": 5123,
      "𐔾": 5124,
      "𐔿": 5125,
      "𐕀": 5126,
      "𐕁": 5127,
      "𐕂": 5128,
      "𐕃": 5129,
      "𐕄": 5130,
      "𐕅": 5131,
      "𐕆": 5132,
      "𐕇": 5133,
      "𐕈": 5134,
      "𐕉": 5135,
      "𐕊": 5136,
      "𐕋": 5137,
      "𐕌": 5138,
      "𐕍": 5139,
      "𐕎": 5140,
      "𐕏": 5141,
      "𐕐": 5142,
      "𐕑": 5143,
      "𐕒": 5144,
      "𐕓": 5145,
      "𐕔": 5146,
      "𐕕": 5147,
      "𐕖": 5148,
      "𐕗": 5149,
      "𐕘": 5150,
      "𐕙": 5151,
      "𐕚": 5152,
      "𐕛": 5153,
      "𐕜": 5154,
      "𐕝": 5155,
      "𐕞": 5156,
      "𐕟": 5157,
      "𐕠": 5158,
      "𐕡": 5159,
      "𐕢": 5160,
      "𐕣": 5161,
      "𐤀": 5162,
      "𐤃": 5163,
      "𐤅": 5164,
      "𐤋": 5165,
      "𐤌": 5166,
      "𐤍": 5167,
      "𐤏": 5168,
      "𐤑": 5169,
      "𐤒": 5170,
      "𐤓": 5171,
      "𐰃": 5172,
      "𐰆": 5173,
      "𐰇": 5174,
      "𐰉": 5175,
      "𐰋": 5176,
      "𐰍": 5177,
      "𐰏": 5178,
      "𐰑": 5179,
      "𐰖": 5180,
      "𐰛": 5181,
      "𐰜": 5182,
      "𐰞": 5183,
      "𐰣": 5184,
      "𐰭": 5185,
      "𐰯": 5186,
      "𐰰": 5187,
      "𐰴": 5188,
      "𐰼": 5189,
      "𐰾": 5190,
      "𐱁": 5191,
      "𐱅": 5192,
      "𒀝": 5193,
      "𒀭": 5194,
      "𒁺": 5195,
      "𒂗": 5196,
      "𒂠": 5197,
      "𒅴": 5198,
      "𒆘": 5199,
      "𒆠": 5200,
      "𒆪": 5201,
      "𒆳": 5202,
      "𒈹": 5203,
      "𒊑": 5204,
      "𒊒": 5205,
      "𒋀": 5206,
      "𒋢": 5207,
      "𒌨": 5208,
      "𓉺": 5209,
      "𓊖": 5210,
      "𓎰": 5211,
      "𓏌": 5212,
      "𓏏": 5213,
      "𝐚": 5214,
      "𝐝": 5215,
      "𝐞": 5216,
      "𝐢": 5217,
      "𝐤": 5218,
      "𝐥": 5219,
      "𝐦": 5220,
      "𝐧": 5221,
      "𝐫": 5222,
      "𝐭": 5223,
      "𝐯": 5224,
      "𝐲": 5225,
      "𝑈": 5226,
      "𝑥": 5227,
      "𝘢": 5228,
      "𝘦": 5229,
      "𝘪": 5230,
      "𝘭": 5231,
      "𝘰": 5232,
      "𝘱": 5233,
      "𝜋": 5234,
      "𝜔": 5235,
      "🇦": 5236,
      "🇩": 5237,
      "🇪": 5238,
      "🇿": 5239,
      "🎖": 5240,
      "🏁": 5241,
      "🏽": 5242,
      "👣": 5243,
      "💋": 5244,
      "📌": 5245,
      "🚣": 5246,
      "🤘": 5247,
      "🥀": 5248,
      "🥇": 5249,
      "🥈": 5250,
      "🥉": 5251,
      "𠊚": 5252,
      "􀁝": 5253,
      "n▁": 5254,
      "ə▁": 5255,
      "ər": 5256,
      "i▁": 5257,
      "ar": 5258,
      "a▁": 5259,
      "il": 5260,
      "in": 5261,
      "ir": 5262,
      "an": 5263,
      ",▁": 5264,
      "ı▁": 5265,
      "al": 5266,
      ".▁": 5267,
      "iy": 5268,
      "də▁": 5269,
      "lər": 5270,
      "ın": 5271,
      "əs": 5272,
      "lar": 5273,
      "in▁": 5274,
      "as": 5275,
      "an▁": 5276,
      "ay": 5277,
      "də": 5278,
      "ol": 5279,
      "ad": 5280,
      "is": 5281,
      "ət": 5282,
      "\n\n": 5283,
      "er": 5284,
      "və▁": 5285,
      "at": 5286,
      "ın▁": 5287,
      "ən": 5288,
      "əl": 5289,
      "ik": 5290,
      "on": 5291,
      "da▁": 5292,
      "u▁": 5293,
      "un": 5294,
      "ur": 5295,
      "ır": 5296,
      "iş": 5297,
      "am": 5298,
      "dir": 5299,
      "mə": 5300,
      "et": 5301,
      "im": 5302,
      ".\n\n": 5303,
      "or": 5304,
      "aş": 5305,
      "aq": 5306,
      "st": 5307,
      "az": 5308,
      "-c": 5309,
      "mü": 5310,
      "dən▁": 5311,
      "\n▁": 5312,
      "id": 5313,
      "inin▁": 5314,
      "en": 5315,
      "tə": 5316,
      "k▁": 5317,
      "19": 5318,
      "ey": 5319,
      "it": 5320,
      "ində▁": 5321,
      "ah": 5322,
      "▁və▁": 5323,
      "əm": 5324,
      "ak": 5325,
      "20": 5326,
      "ed": 5327,
      "əh": 5328,
      "ış": 5329,
      "ul": 5330,
      "ab": 5331,
      "i▁il": 5332,
      "bir": 5333,
      "▁s": 5334,
      "ən▁": 5335,
      "iyy": 5336,
      "asın": 5337,
      "ıl": 5338,
      "ib": 5339,
      "ax": 5340,
      "un▁": 5341,
      "el": 5342,
      "ün": 5343,
      "ağ": 5344,
      "di": 5345,
      "ərb": 5346,
      "▁m": 5347,
      "ür": 5348,
      "▁k": 5349,
      "▁t": 5350,
      "ist": 5351,
      "iz": 5352,
      "dır": 5353,
      "miş": 5354,
      "if": 5355,
      "▁ol": 5356,
      "ov": 5357,
      "əy": 5358,
      "us": 5359,
      "▁(": 5360,
      "▁d": 5361,
      "gö": 5362,
      "öv": 5363,
      "inə▁": 5364,
      "əf": 5365,
      "əz": 5366,
      "ub": 5367,
      "-ci▁il": 5368,
      "dan▁": 5369,
      "▁q": 5370,
      "ək": 5371,
      "əd": 5372,
      "ələr": 5373,
      "om": 5374,
      "li▁": 5375,
      "ic": 5376,
      "əb": 5377,
      "Az": 5378,
      "es": 5379,
      "ası▁": 5380,
      "ün▁": 5381,
      "iya▁": 5382,
      "ayc": 5383,
      "▁b": 5384,
      "ərbayc": 5385,
      "eç": 5386,
      "i,▁": 5387,
      "▁y": 5388,
      "um": 5389,
      "iq": 5390,
      "—▁": 5391,
      "Azərbayc": 5392,
      ".▁B": 5393,
      "ilə▁": 5394,
      "ıq": 5395,
      "ev": 5396,
      "əş": 5397,
      "ında▁": 5398,
      "av": 5399,
      "ini▁": 5400,
      "af": 5401,
      "anın▁": 5402,
      ")▁": 5403,
      "iyyət": 5404,
      "uş": 5405,
      "▁h": 5406,
      "əsi▁": 5407,
      "ının▁": 5408,
      "indən▁": 5409,
      "ilər": 5410,
      "ver": 5411,
      "mış": 5412,
      "em": 5413,
      "dir.▁": 5414,
      "dı": 5415,
      "ü▁": 5416,
      "lan": 5417,
      "lik": 5418,
      "edil": 5419,
      "lı▁": 5420,
      "du": 5421,
      "alar": 5422,
      "ro": 5423,
      "lar▁": 5424,
      "▁n": 5425,
      "üz": 5426,
      "üç": 5427,
      "ek": 5428,
      "baş": 5429,
      "ləri▁": 5430,
      "ap": 5431,
      "ları▁": 5432,
      "▁et": 5433,
      "ox": 5434,
      "ənd": 5435,
      "Azərbaycan▁": 5436,
      "ər▁": 5437,
      "son": 5438,
      "öy": 5439,
      "öl": 5440,
      "a,▁": 5441,
      "ül": 5442,
      "oy": 5443,
      "e▁": 5444,
      "lər▁": 5445,
      "ut": 5446,
      "gör": 5447,
      "ilm": 5448,
      "200": 5449,
      "ac": 5450,
      "aq▁": 5451,
      "yer": 5452,
      "ına▁": 5453,
      "dur": 5454,
      "▁M": 5455,
      "ığ": 5456,
      "çı": 5457,
      "muş": 5458,
      "ildə▁": 5459,
      "ent": 5460,
      "-ci▁ildə▁": 5461,
      "ix": 5462,
      "201": 5463,
      "üçün▁": 5464,
      "keç": 5465,
      "İst": 5466,
      "ləş": 5467,
      ":▁": 5468,
      "on▁": 5469,
      "ada▁": 5470,
      "oğ": 5471,
      "▁e": 5472,
      "ra▁": 5473,
      "əv": 5474,
      "ların▁": 5475,
      "yar": 5476,
      "şəh": 5477,
      "art": 5478,
      "▁f": 5479,
      "liy": 5480,
      "ərəf": 5481,
      "os": 5482,
      "la▁": 5483,
      "üs": 5484,
      "üm": 5485,
      "▁A": 5486,
      "ız": 5487,
      "uz": 5488,
      "öz": 5489,
      "öyü": 5490,
      "ya▁": 5491,
      "inad": 5492,
      "imi▁": 5493,
      "ı,▁": 5494,
      "▁edil": 5495,
      "İstinad": 5496,
      "asında▁": 5497,
      "ını▁": 5498,
      "ki▁": 5499,
      "asının▁": 5500,
      "var": 5501,
      "di.▁": 5502,
      "lə▁": 5503,
      "bu▁": 5504,
      "re": 5505,
      "dir.\n\n": 5506,
      "\"▁": 5507,
      "isə▁": 5508,
      "al▁": 5509,
      "dən": 5510,
      "çox": 5511,
      "arix": 5512,
      "ət▁": 5513,
      "ok": 5514,
      "i▁və▁": 5515,
      "18": 5516,
      "əsində▁": 5517,
      "bir▁": 5518,
      "ot": 5519,
      "▁▁": 5520,
      "sonra▁": 5521,
      "anı▁": 5522,
      "unun▁": 5523,
      "199": 5524,
      "dır.▁": 5525,
      "d▁": 5526,
      "diy": 5527,
      "ım": 5528,
      "mək": 5529,
      "op": 5530,
      "iss": 5531,
      "qar": 5532,
      "ir.▁": 5533,
      "əc": 5534,
      "ray": 5535,
      "▁S": 5536,
      "mək▁": 5537,
      "ans": 5538,
      "üt": 5539,
      "ik▁": 5540,
      "şəhər": 5541,
      "olan▁": 5542,
      "ək▁": 5543,
      "-cü▁": 5544,
      "lıq": 5545,
      "övl": 5546,
      "olar": 5547,
      "i▁ilə▁": 5548,
      "əsinin▁": 5549,
      "akı▁": 5550,
      "lərin▁": 5551,
      "▁olun": 5552,
      "ük": 5553,
      "inc": 5554,
      "mən": 5555,
      "ərəfindən▁": 5556,
      ".\n▁": 5557,
      "il▁": 5558,
      "ins": 5559,
      "iyyat": 5560,
      "təl": 5561,
      "muşdur": 5562,
      "ıs": 5563,
      "lay": 5564,
      "uq": 5565,
      "iç": 5566,
      "00": 5567,
      "alı▁": 5568,
      "gəl": 5569,
      "lən": 5570,
      "ması▁": 5571,
      "siy": 5572,
      "əq": 5573,
      ")▁—▁": 5574,
      "abr": 5575,
      "olo": 5576,
      "əsas": 5577,
      "lərdə▁": 5578,
      "man": 5579,
      "ləri": 5580,
      "o▁": 5581,
      "ərk": 5582,
      "İn": 5583,
      "iv": 5584,
      ".▁Bu▁": 5585,
      "məs": 5586,
      "üş": 5587,
      "kənd": 5588,
      "qr": 5589,
      "onun▁": 5590,
      "ə,▁": 5591,
      "eh": 5592,
      "müh": 5593,
      ")\n▁": 5594,
      "lam": 5595,
      "mişdir.▁": 5596,
      "adə▁": 5597,
      "ədə▁": 5598,
      "and": 5599,
      "▁B": 5600,
      "aç": 5601,
      "uğ": 5602,
      "unda▁": 5603,
      "lığ": 5604,
      "ud": 5605,
      "lu▁": 5606,
      "t▁": 5607,
      "əraz": 5608,
      "-cı▁": 5609,
      "eyn": 5610,
      "bil": 5611,
      "ici▁": 5612,
      "ından▁": 5613,
      "ır.▁": 5614,
      "iki▁": 5615,
      "qal": 5616,
      "Al": 5617,
      "aya▁": 5618,
      "▁K": 5619,
      "idi": 5620,
      "ları": 5621,
      "alq": 5622,
      "film": 5623,
      "təs": 5624,
      "zam": 5625,
      "ir▁": 5626,
      "II": 5627,
      "öyük▁": 5628,
      "məy": 5629,
      "yerləş": 5630,
      "ar▁": 5631,
      "əyat": 5632,
      "akt": 5633,
      "təb": 5634,
      "pro": 5635,
      "qəd": 5636,
      "görə▁": 5637,
      "kil": 5638,
      "isi▁": 5639,
      "axil": 5640,
      "-cu▁": 5641,
      "həm": 5642,
      "İstinadlar": 5643,
      "pub": 5644,
      "ıb": 5645,
      "i▁s": 5646,
      "ip": 5647,
      "dı.▁": 5648,
      "aha▁": 5649,
      "olun": 5650,
      "rayon": 5651,
      "ion": 5652,
      "çıx": 5653,
      "ərq": 5654,
      "əsr": 5655,
      "ma▁": 5656,
      "bax": 5657,
      "Həm": 5658,
      "198": 5659,
      "ort": 5660,
      "ılmış": 5661,
      "publik": 5662,
      "asına▁": 5663,
      "İs": 5664,
      "espublik": 5665,
      "dür": 5666,
      "od": 5667,
      "övr": 5668,
      "stər": 5669,
      "ör": 5670,
      "təş": 5671,
      "mət": 5672,
      "ekt": 5673,
      "adan▁": 5674,
      "dər": 5675,
      "göstər": 5676,
      "arici▁": 5677,
      "),▁": 5678,
      "çinin▁": 5679,
      "anda▁": 5680,
      "per": 5681,
      "anlar": 5682,
      "of": 5683,
      "də,▁": 5684,
      "▁T": 5685,
      "ası": 5686,
      "daş": 5687,
      "ənin▁": 5688,
      "duğ": 5689,
      "bər": 5690,
      "üc": 5691,
      "kimi▁": 5692,
      "əx": 5693,
      "▁v": 5694,
      "istif": 5695,
      "te": 5696,
      "▁c": 5697,
      "daxil": 5698,
      "laş": 5699,
      "İstinadlar\n\n": 5700,
      "inci▁": 5701,
      "keçir": 5702,
      "ov▁": 5703,
      "Respublik": 5704,
      "əli▁": 5705,
      "azır": 5706,
      "larının▁": 5707,
      "197": 5708,
      "illi▁": 5709,
      "▁olan▁": 5710,
      "i-": 5711,
      "ob": 5712,
      "xan": 5713,
      "6-cı▁": 5714,
      "unu▁": 5715,
      "mal": 5716,
      "lərinin▁": 5717,
      "əal": 5718,
      "ru": 5719,
      "ədə": 5720,
      "xalq": 5721,
      "15": 5722,
      "Qar": 5723,
      "may": 5724,
      "ilk▁": 5725,
      "▁ki,▁": 5726,
      "An": 5727,
      "təh": 5728,
      "una▁": 5729,
      "eni▁": 5730,
      "▁P": 5731,
      "kar": 5732,
      "qur": 5733,
      "diyi▁": 5734,
      "yax": 5735,
      "bur": 5736,
      "yan": 5737,
      "On": 5738,
      "təşkil": 5739,
      "qarş": 5740,
      "sil": 5741,
      "mişdir.\n\n": 5742,
      "eş": 5743,
      "müş": 5744,
      "elm": 5745,
      "da": 5746,
      "ant": 5747,
      "▁ş": 5748,
      "əti▁": 5749,
      "ök": 5750,
      "yaş": 5751,
      "gər": 5752,
      "10": 5753,
      "Xarici▁": 5754,
      "ənc": 5755,
      "vəl": 5756,
      "İr": 5757,
      "İstinadlar▁": 5758,
      "ürk": 5759,
      "yaz": 5760,
      "rans": 5761,
      "alt": 5762,
      "dır.\n\n": 5763,
      "iver": 5764,
      "əaliyyət": 5765,
      "sit": 5766,
      "əll": 5767,
      "eyd": 5768,
      "El": 5769,
      "əfər": 5770,
      "məh": 5771,
      "üst": 5772,
      "s▁": 5773,
      "12": 5774,
      "keçid": 5775,
      "arib": 5776,
      "aid": 5777,
      "istifadə▁": 5778,
      "mün": 5779,
      "axt": 5780,
      "Rus": 5781,
      "17": 5782,
      "Av": 5783,
      "-▁": 5784,
      "adı": 5785,
      "-cü▁ildə▁": 5786,
      "ərkəz": 5787,
      "196": 5788,
      "dəf": 5789,
      "əsər": 5790,
      "ərbi▁": 5791,
      "İstinadlar▁\n\n": 5792,
      "▁p": 5793,
      "qaz": 5794,
      "kom": 5795,
      "muşdur.▁": 5796,
      "gen": 5797,
      "sah": 5798,
      "lü": 5799,
      "çək": 5800,
      "tər": 5801,
      "dar": 5802,
      "ı▁və▁": 5803,
      "müd": 5804,
      "maq": 5805,
      "Xarici▁keçid": 5806,
      "▁tərəfindən▁": 5807,
      "abr▁": 5808,
      "▁r": 5809,
      "bar": 5810,
      "oz": 5811,
      "əng": 5812,
      "rə▁": 5813,
      "ep": 5814,
      "▁ver": 5815,
      "daha▁": 5816,
      ".\n": 5817,
      "iversit": 5818,
      "u,▁": 5819,
      "arasında▁": 5820,
      "olog": 5821,
      "▁edir": 5822,
      "for": 5823,
      "ətic": 5824,
      "iyası▁": 5825,
      "uy": 5826,
      "di.\n\n": 5827,
      "alın": 5828,
      "dəy": 5829,
      "man▁": 5830,
      "en▁": 5831,
      "Ar": 5832,
      "böyük▁": 5833,
      "ir.\n\n": 5834,
      "iyanın▁": 5835,
      "öyüş": 5836,
      "üsus": 5837,
      "ağa▁": 5838,
      "məd": 5839,
      "ölk": 5840,
      "məsi▁": 5841,
      "Həmçinin▁": 5842,
      "təm": 5843,
      "tis": 5844,
      "əsinə▁": 5845,
      "ef": 5846,
      "▁H": 5847,
      "ter": 5848,
      "ail": 5849,
      "apar": 5850,
      "ust": 5851,
      "tir": 5852,
      ".▁M": 5853,
      "di▁": 5854,
      "▁x": 5855,
      "ələri▁": 5856,
      "ec": 5857,
      "ak▁": 5858,
      "arət": 5859,
      "vəz": 5860,
      "\",▁": 5861,
      "▁N": 5862,
      "▁tarix": 5863,
      "▁—▁": 5864,
      "tərəfindən▁": 5865,
      "rop": 5866,
      "oğlu▁": 5867,
      "itab": 5868,
      "dəki▁": 5869,
      "dakı▁": 5870,
      "əvvəl": 5871,
      "təy": 5872,
      "he▁": 5873,
      "aqq": 5874,
      "tan": 5875,
      "ost": 5876,
      "▁\n▁": 5877,
      "▁C": 5878,
      "oş": 5879,
      "▁D": 5880,
      "lərində▁": 5881,
      "ayr": 5882,
      "▁Ə": 5883,
      "da,▁": 5884,
      "hal": 5885,
      "Un": 5886,
      "16": 5887,
      "iversitet": 5888,
      "əlum": 5889,
      "dığ": 5890,
      "ord": 5891,
      "əsi": 5892,
      "büt": 5893,
      "ill": 5894,
      "kl": 5895,
      "övlət": 5896,
      "ənub": 5897,
      "kiş": 5898,
      "ilmiş": 5899,
      "qay": 5900,
      "▁yaş": 5901,
      "9-cu▁": 5902,
      "etr": 5903,
      "müharib": 5904,
      "urn": 5905,
      "▁kimi▁": 5906,
      "olaraq▁": 5907,
      "ı▁ilə▁": 5908,
      "məyə▁": 5909,
      "imal": 5910,
      "ing": 5911,
      "raf": 5912,
      "növ": 5913,
      "Həmçinin▁bax": 5914,
      "▁mü": 5915,
      "mə▁": 5916,
      "gün": 5917,
      "fəaliyyət": 5918,
      "an,▁": 5919,
      "lara▁": 5920,
      "tarix": 5921,
      "üv": 5922,
      "Or": 5923,
      "ux": 5924,
      "kö": 5925,
      "194": 5926,
      "lərini▁": 5927,
      "ağı▁": 5928,
      "Xarici▁keçidlər▁": 5929,
      "asını▁": 5930,
      "əyə▁": 5931,
      "ana▁": 5932,
      "-n": 5933,
      "▁Q": 5934,
      "▁əsr": 5935,
      "ial": 5936,
      "195": 5937,
      "dən▁sonra▁": 5938,
      "bağ": 5939,
      "dün": 5940,
      "ов": 5941,
      "üzv": 5942,
      "tor": 5943,
      "səd": 5944,
      "təd": 5945,
      "lı": 5946,
      "elə▁": 5947,
      "ika▁": 5948,
      "üzrə▁": 5949,
      "O,▁": 5950,
      "idi.▁": 5951,
      "larında▁": 5952,
      "14": 5953,
      "lərə▁": 5954,
      "zid": 5955,
      "i▁h": 5956,
      "at▁": 5957,
      "ündə▁": 5958,
      "min": 5959,
      "məş": 5960,
      "eks": 5961,
      "atı▁": 5962,
      "maq▁": 5963,
      "ərh": 5964,
      "ələ▁": 5965,
      "–▁": 5966,
      "qiq": 5967,
      "üks": 5968,
      "ur.▁": 5969,
      "dövr": 5970,
      "İl": 5971,
      "ilən▁": 5972,
      "esab": 5973,
      "evr": 5974,
      "iştir": 5975,
      "du.▁": 5976,
      "193": 5977,
      "düş": 5978,
      "▁F": 5979,
      "övlət▁": 5980,
      "tif": 5981,
      "akin▁": 5982,
      "iyasının▁": 5983,
      "dü": 5984,
      "ay▁": 5985,
      "Mü": 5986,
      "əbəb": 5987,
      "-cü▁il": 5988,
      "çal": 5989,
      "lərinə▁": 5990,
      "araq": 5991,
      "adə": 5992,
      "məktəb": 5993,
      "13": 5994,
      "xüsus": 5995,
      "▁▁▁▁": 5996,
      "est": 5997,
      "dil": 5998,
      "hazır": 5999,
      "ları\n": 6000,
      "▁R": 6001,
      "Türk": 6002,
      "▁ad": 6003,
      "i▁(": 6004,
      "asiya▁": 6005,
      "bit": 6006,
      "-də▁": 6007,
      "rist": 6008,
      "rezid": 6009,
      "rezident": 6010,
      "əss": 6011,
      "duğu▁": 6012,
      "lim": 6013,
      "mışdır.▁": 6014,
      "ərək": 6015,
      "ön": 6016,
      "▁al": 6017,
      "doğ": 6018,
      "kişaf": 6019,
      "ark": 6020,
      "ст": 6021,
      "iyə▁": 6022,
      "lə": 6023,
      "Er": 6024,
      "nətic": 6025,
      "SR": 6026,
      "ag": 6027,
      "xtəl": 6028,
      "təq": 6029,
      "əhəm": 6030,
      "ürc": 6031,
      "xtəlif": 6032,
      "▁qal": 6033,
      "dilər": 6034,
      "masına▁": 6035,
      "ig": 6036,
      "uc": 6037,
      "həyat": 6038,
      "idmət": 6039,
      "lub": 6040,
      "ess": 6041,
      "▁yar": 6042,
      "▁hiss": 6043,
      "-ci▁ilin▁": 6044,
      "▁Y": 6045,
      "▁yer": 6046,
      "say": 6047,
      "üb": 6048,
      "lar.▁": 6049,
      "ator": 6050,
      "ərək▁": 6051,
      "nəz": 6052,
      "bol": 6053,
      "▁nəfər": 6054,
      "azir": 6055,
      "▁\n": 6056,
      "akim": 6057,
      "Universitet": 6058,
      "ih": 6059,
      "inq": 6060,
      "ır.\n\n": 6061,
      "ind": 6062,
      "tam": 6063,
      "üvv": 6064,
      "tisad": 6065,
      "sal": 6066,
      "qan": 6067,
      "ıst": 6068,
      "undan▁": 6069,
      "əlaq": 6070,
      "o,▁": 6071,
      "BŞ": 6072,
      "çay": 6073,
      "dəfə▁": 6074,
      "olaraq": 6075,
      "çox▁": 6076,
      "Azərbaycan▁Respublik": 6077,
      "zamanı▁": 6078,
      "ast": 6079,
      "möv": 6080,
      "bəy": 6081,
      "ск": 6082,
      "əhal": 6083,
      "aqqında▁": 6084,
      "oq": 6085,
      "üzər": 6086,
      "larda▁": 6087,
      "əxs": 6088,
      "akı": 6089,
      "inkişaf": 6090,
      "dik": 6091,
      "əsini▁": 6092,
      "ovet": 6093,
      "ji▁": 6094,
      "istem": 6095,
      "Kom": 6096,
      ";▁": 6097,
      "pl": 6098,
      "üq": 6099,
      "in,▁": 6100,
      "döyüş": 6101,
      "stit": 6102,
      "ərazis": 6103,
      "izm": 6104,
      "sən": 6105,
      "tür": 6106,
      "lərindən▁": 6107,
      "oyun": 6108,
      "əsasən▁": 6109,
      "25": 6110,
      "ki,▁": 6111,
      "▁edən▁": 6112,
      "lardan▁": 6113,
      "larına▁": 6114,
      "böl": 6115,
      "dırıl": 6116,
      "SSR": 6117,
      "ri▁": 6118,
      "əbul": 6119,
      "ləşdir": 6120,
      "bütün▁": 6121,
      "üf": 6122,
      "aları▁": 6123,
      "ayət": 6124,
      "nam": 6125,
      "dəyiş": 6126,
      "и▁": 6127,
      "çilər": 6128,
      "▁sah": 6129,
      "avam": 6130,
      "ləri\n": 6131,
      "əsil": 6132,
      "larını▁": 6133,
      "▁med": 6134,
      "cə▁": 6135,
      "iya": 6136,
      "dığı▁": 6137,
      "ez": 6138,
      "ca▁": 6139,
      "yol": 6140,
      "azad": 6141,
      "mişdir": 6142,
      "dəs": 6143,
      "çat": 6144,
      "i▁\n": 6145,
      "sonr": 6146,
      "▁etdir": 6147,
      "Am": 6148,
      "aj": 6149,
      "onu▁": 6150,
      "ch": 6151,
      ".\n\nH": 6152,
      "21": 6153,
      "par": 6154,
      "i▁ol": 6155,
      "müddə": 6156,
      "müxtəlif": 6157,
      "▁L": 6158,
      "eynəl": 6159,
      "yarad": 6160,
      "up": 6161,
      "dağ": 6162,
      "atr": 6163,
      "bəz": 6164,
      "usiq": 6165,
      "luğ": 6166,
      "öh": 6167,
      "xn": 6168,
      "özün": 6169,
      "sər": 6170,
      "ABŞ": 6171,
      "Əl": 6172,
      "səbəb": 6173,
      "\"▁(": 6174,
      "Frans": 6175,
      "yay": 6176,
      "eynəlxalq": 6177,
      "adı▁": 6178,
      "yaşay": 6179,
      "eyil": 6180,
      "kaf": 6181,
      "biyyat": 6182,
      "а▁": 6183,
      "Os": 6184,
      "yen": 6185,
      "əlumat": 6186,
      "tut": 6187,
      "qarşı▁": 6188,
      "Azərbaycanın▁": 6189,
      " —▁": 6190,
      "ни": 6191,
      "▁g": 6192,
      "kon": 6193,
      "adlı▁": 6194,
      "▁il": 6195,
      "ult": 6196,
      "alı": 6197,
      "adlan": 6198,
      "▁()▁—▁": 6199,
      "əşr": 6200,
      "Ağ": 6201,
      "▁mən": 6202,
      ".▁S": 6203,
      "hiss": 6204,
      "vəzif": 6205,
      "iyada▁": 6206,
      "24": 6207,
      "rayonunun▁": 6208,
      "van▁": 6209,
      "a▁və▁": 6210,
      "idir.▁": 6211,
      "şək": 6212,
      "kr": 6213,
      ",▁s": 6214,
      "mağa▁": 6215,
      "mi▁": 6216,
      "xidmət": 6217,
      "luq": 6218,
      "eyr": 6219,
      "əyy": 6220,
      "idə▁": 6221,
      "üquq": 6222,
      "ty": 6223,
      "gər▁": 6224,
      "ümay": 6225,
      "km": 6226,
      "işl": 6227,
      "İstinadlar\n\nXarici▁keçidlər▁": 6228,
      "liyev": 6229,
      "form": 6230,
      "hur": 6231,
      "ətir": 6232,
      "Ab": 6233,
      "30": 6234,
      "tal": 6235,
      "6-cı▁ildə▁": 6236,
      "çalış": 6237,
      "yüks": 6238,
      "əvi▁": 6239,
      "rəh": 6240,
      "im▁": 6241,
      "film,▁": 6242,
      "isteh": 6243,
      "ılan▁": 6244,
      "müəll": 6245,
      "ра": 6246,
      "ümün": 6247,
      "dəniz": 6248,
      "ta▁": 6249,
      "mək▁üçün▁": 6250,
      "22": 6251,
      "ləndir": 6252,
      "şəhərində▁": 6253,
      "qa▁": 6254,
      "▁say": 6255,
      "Bir": 6256,
      "qız": 6257,
      "qor": 6258,
      "8-ci▁ildə▁": 6259,
      "Tarix": 6260,
      "int": 6261,
      "11": 6262,
      "qraf": 6263,
      "ıc": 6264,
      ").▁": 6265,
      "lərdən▁": 6266,
      "liyi▁": 6267,
      "pr": 6268,
      "siyas": 6269,
      "я▁": 6270,
      "ona▁": 6271,
      "2020": 6272,
      "əni▁": 6273,
      "▁dövr": 6274,
      "bilər": 6275,
      "Avrop": 6276,
      "7-ci▁ildə▁": 6277,
      "idən▁": 6278,
      "qədər▁": 6279,
      "ağır": 6280,
      "Br": 6281,
      "emp": 6282,
      "mədən": 6283,
      "edir": 6284,
      "iyyəti▁": 6285,
      "mir": 6286,
      ".,▁": 6287,
      "▁Ş": 6288,
      "edən▁": 6289,
      "▁\n\n": 6290,
      "▁də▁": 6291,
      "▁kom": 6292,
      "ıy": 6293,
      "▁bu▁": 6294,
      "amət": 6295,
      "indəki▁": 6296,
      "air": 6297,
      "məz": 6298,
      "lis": 6299,
      "geniş": 6300,
      "ass": 6301,
      "iştirak▁": 6302,
      "bir▁n": 6303,
      "ı▁\n": 6304,
      "rup": 6305,
      "stitut": 6306,
      "ən,▁": 6307,
      "i\n": 6308,
      "arx": 6309,
      "idar": 6310,
      "ılıq": 6311,
      "iyyə▁": 6312,
      "yeni▁": 6313,
      "oc": 6314,
      "kəm": 6315,
      "ran": 6316,
      "paq": 6317,
      "▁\"": 6318,
      "yerləşən▁": 6319,
      "Milli▁": 6320,
      "tik": 6321,
      "şəxs": 6322,
      "larından▁": 6323,
      "ham": 6324,
      "▁V": 6325,
      "vəf": 6326,
      "\",▁\"": 6327,
      "ümum": 6328,
      "Mən": 6329,
      "qəbul": 6330,
      "göz": 6331,
      "ens": 6332,
      "ələrinin▁": 6333,
      "edib": 6334,
      "й▁": 6335,
      "\n▁S": 6336,
      "▁kənd": 6337,
      "▁göstər": 6338,
      "23": 6339,
      "6-cı▁il": 6340,
      "-ci▁": 6341,
      "başlay": 6342,
      "yet": 6343,
      "istan▁": 6344,
      "rom": 6345,
      "▁edir.▁": 6346,
      "ası,▁": 6347,
      "ərz": 6348,
      "arı▁": 6349,
      "anının▁": 6350,
      "iyalar": 6351,
      "davam": 6352,
      "▁dil": 6353,
      "mad": 6354,
      "▁iy": 6355,
      "Rusiya▁": 6356,
      "str": 6357,
      "▁və▁ya▁": 6358,
      "irk": 6359,
      ")\n\n": 6360,
      "orta▁": 6361,
      "utbol": 6362,
      "rəhbər": 6363,
      "yaran": 6364,
      "eg": 6365,
      "bl": 6366,
      "inə▁aid": 6367,
      "onların▁": 6368,
      "Qarab": 6369,
      "məq": 6370,
      "ер": 6371,
      "muşdur.\n\n": 6372,
      "çu": 6373,
      "hey": 6374,
      "əhr": 6375,
      "ahn": 6376,
      "lər.▁": 6377,
      "usu▁": 6378,
      "ina▁": 6379,
      "Dövlət▁": 6380,
      "mərkəz": 6381,
      "adis": 6382,
      "5-ci▁ildə▁": 6383,
      "şah": 6384,
      "birlik": 6385,
      "br": 6386,
      "əst": 6387,
      "qoy": 6388,
      "olub": 6389,
      "ələrin▁": 6390,
      "▁G": 6391,
      "ilik": 6392,
      "dan▁sonra▁": 6393,
      "vir": 6394,
      "ədən▁": 6395,
      "alan": 6396,
      "oll": 6397,
      "2-ci▁ildə▁": 6398,
      "tr": 6399,
      "qədər": 6400,
      "Onun▁": 6401,
      "dövlət": 6402,
      "9-cu▁ildə▁": 6403,
      "hər▁": 6404,
      "kim": 6405,
      "iqtisad": 6406,
      "dı.\n\n": 6407,
      "istiq": 6408,
      "iyev": 6409,
      "rəs": 6410,
      "a-": 6411,
      "enty": 6412,
      "Əhal": 6413,
      "izə▁": 6414,
      "sul": 6415,
      "çıs": 6416,
      "mun": 6417,
      "-ci▁illərdə▁": 6418,
      "▁baş": 6419,
      "çi▁": 6420,
      "eçə▁": 6421,
      "ibarət": 6422,
      "oqraf": 6423,
      "е▁": 6424,
      "asit": 6425,
      "gətir": 6426,
      "ell": 6427,
      "lük": 6428,
      "1-ci▁ildə▁": 6429,
      "gil": 6430,
      " km": 6431,
      "tur": 6432,
      "ökum": 6433,
      "ərar": 6434,
      "Film": 6435,
      "ığı▁": 6436,
      "ayev": 6437,
      "müəyy": 6438,
      "nəzər": 6439,
      "müddət": 6440,
      "rus": 6441,
      "III": 6442,
      "təx": 6443,
      "anlı▁": 6444,
      "düny": 6445,
      "lar,▁": 6446,
      "mər": 6447,
      "empion": 6448,
      "lığı▁": 6449,
      "27": 6450,
      "Qarabağ": 6451,
      "sil▁": 6452,
      "afi": 6453,
      "lıq▁": 6454,
      "güc": 6455,
      "Baş": 6456,
      "və▁ya▁": 6457,
      "4-cü▁ildə▁": 6458,
      "ində,▁": 6459,
      "fərq": 6460,
      "larla▁": 6461,
      "araq▁": 6462,
      "anadan▁": 6463,
      "adem": 6464,
      "▁fəsil": 6465,
      "3-cü▁ildə▁": 6466,
      "rel": 6467,
      "er▁": 6468,
      "yun": 6469,
      "ölümün": 6470,
      "tar": 6471,
      "elmi▁": 6472,
      "Sovet": 6473,
      "bul": 6474,
      "ərkib": 6475,
      "di▁və▁": 6476,
      "digər": 6477,
      "i\n\n": 6478,
      "məd▁": 6479,
      "üzərində▁": 6480,
      "tədqiq": 6481,
      "tim": 6482,
      "əfər▁": 6483,
      "▁tut": 6484,
      "urnal": 6485,
      "Ak": 6486,
      "əməl": 6487,
      "aln": 6488,
      "ılm": 6489,
      "Ermən": 6490,
      "▁yol": 6491,
      "▁və▁s": 6492,
      "hərbi▁": 6493,
      "nümay": 6494,
      "veril": 6495,
      "var▁": 6496,
      "//": 6497,
      "sahib": 6498,
      "▁dər": 6499,
      "raz": 6500,
      "uğr": 6501,
      "idir": 6502,
      "qad": 6503,
      "sk": 6504,
      "şərq": 6505,
      "ion▁": 6506,
      "i\n▁": 6507,
      "u▁və▁": 6508,
      "biri▁": 6509,
      "lah": 6510,
      "▁İ": 6511,
      ".\n\nİstinadlar▁\n\n": 6512,
      "eri▁": 6513,
      "şı▁": 6514,
      "lad": 6515,
      "Kar": 6516,
      "yerləşir.▁": 6517,
      "asib": 6518,
      "ily": 6519,
      "seç": 6520,
      "но": 6521,
      "oloji▁": 6522,
      "ücum": 6523,
      "anc": 6524,
      "Kr": 6525,
      "qır": 6526,
      "ladı": 6527,
      "malik": 6528,
      "ünya▁": 6529,
      "na▁": 6530,
      "▁möv": 6531,
      "okty": 6532,
      ")▁(": 6533,
      "qram": 6534,
      "ard": 6535,
      "0-cı▁": 6536,
      "növü": 6537,
      "▁bit": 6538,
      "afqaz": 6539,
      "lakin▁": 6540,
      "istiqamət": 6541,
      "Prezident": 6542,
      "əsindən▁": 6543,
      "50": 6544,
      "digər▁": 6545,
      "qust": 6546,
      "ibar": 6547,
      "bə": 6548,
      "ert": 6549,
      "Bakı▁": 6550,
      "lərlə▁": 6551,
      "ünün▁": 6552,
      "alnız": 6553,
      "bə▁": 6554,
      "qeyd": 6555,
      "ilah": 6556,
      "insinə▁aid": 6557,
      "de": 6558,
      "Osman": 6559,
      "ıb.▁": 6560,
      "üy": 6561,
      "ilərin▁": 6562,
      "на": 6563,
      "ibat": 6564,
      "əsən": 6565,
      "28": 6566,
      "Əs": 6567,
      "qurul": 6568,
      "ünc": 6569,
      "Şərq": 6570,
      "dan": 6571,
      "kitab": 6572,
      "ilməsi▁": 6573,
      "məqsəd": 6574,
      "həmin▁": 6575,
      "ətinin▁": 6576,
      "Par": 6577,
      "Mar": 6578,
      "top": 6579,
      "hakim": 6580,
      "bir▁s": 6581,
      "son▁": 6582,
      ".\n\nHəyat": 6583,
      "siz": 6584,
      "qat": 6585,
      "tez": 6586,
      "tat": 6587,
      "▁yan": 6588,
      "diq": 6589,
      "van": 6590,
      "doğul": 6591,
      "lik▁": 6592,
      "000": 6593,
      ";\n▁": 6594,
      "lamış": 6595,
      "ris": 6596,
      "Kon": 6597,
      "mat": 6598,
      "oğl": 6599,
      "ор": 6600,
      "amış": 6601,
      "cid": 6602,
      "lər,▁": 6603,
      "26": 6604,
      "qav": 6605,
      "▁qur": 6606,
      "İnstitut": 6607,
      "işğ": 6608,
      "190": 6609,
      "təyin▁": 6610,
      "2010": 6611,
      "bağlı▁": 6612,
      "xan▁": 6613,
      "The▁": 6614,
      "İk": 6615,
      "olmuşdur.▁": 6616,
      "cənub": 6617,
      "öz▁": 6618,
      "ıq▁": 6619,
      "qrup": 6620,
      "malar": 6621,
      "şəhrist": 6622,
      "tələb": 6623,
      "ılması▁": 6624,
      "Gənc": 6625,
      "ond": 6626,
      "ir,▁": 6627,
      "ovun▁": 6628,
      "i\"": 6629,
      "vur": 6630,
      "ova▁": 6631,
      "əmməd": 6632,
      "zaman▁": 6633,
      "bir▁neçə▁": 6634,
      "▁ay": 6635,
      "bət": 6636,
      "ndər": 6637,
      "ib.▁": 6638,
      "daxil▁ol": 6639,
      "ölç": 6640,
      "Cənub": 6641,
      "di,▁": 6642,
      "lər\n": 6643,
      "\"S": 6644,
      "maq▁üçün▁": 6645,
      "səf": 6646,
      "mışdır.\n\n": 6647,
      "uk": 6648,
      "gün▁": 6649,
      "əstə": 6650,
      ")\n": 6651,
      "dur.▁": 6652,
      "ern": 6653,
      "Şah": 6654,
      "eyni▁": 6655,
      "hesab": 6656,
      ".0": 6657,
      "bas": 6658,
      "göndər": 6659,
      "ban": 6660,
      "ələb": 6661,
      "birlikdə▁": 6662,
      "cud": 6663,
      "rat": 6664,
      "▁qrup": 6665,
      "tap": 6666,
      ")▁və▁": 6667,
      "məlumat": 6668,
      "ov,▁": 6669,
      "duğunu▁": 6670,
      "altında▁": 6671,
      "acar": 6672,
      "ələrində▁": 6673,
      "ia▁": 6674,
      "vət": 6675,
      "ədd": 6676,
      "erial": 6677,
      "Bakı": 6678,
      "ait": 6679,
      "▁etmiş": 6680,
      "y▁": 6681,
      "başa▁": 6682,
      "yüksək▁": 6683,
      "təhsil": 6684,
      "Yeni▁": 6685,
      "iya,▁": 6686,
      "baş▁ver": 6687,
      "En": 6688,
      "başqa▁": 6689,
      "XI": 6690,
      "ətb": 6691,
      "-nin▁": 6692,
      "imper": 6693,
      "zibat": 6694,
      "▁fəsiləsinin▁": 6695,
      "▁ç": 6696,
      "nə▁": 6697,
      "ündür": 6698,
      "uzey": 6699,
      "uzun": 6700,
      "▁növ": 6701,
      "ir▁və▁": 6702,
      "an▁və▁": 6703,
      "ayır": 6704,
      "məşhur": 6705,
      "-ci▁ildən▁": 6706,
      "əzet": 6707,
      "çıxış": 6708,
      "cüm": 6709,
      "og": 6710,
      "ətraf": 6711,
      "pros": 6712,
      "öyr": 6713,
      "şər": 6714,
      "siyah": 6715,
      "laşdır": 6716,
      "ələn": 6717,
      "29": 6718,
      "düz": 6719,
      "ram": 6720,
      "▁Al": 6721,
      "çıxar": 6722,
      "asitəs": 6723,
      "vəfat": 6724,
      "tərəf": 6725,
      "irdi.▁": 6726,
      "üd": 6727,
      "asından▁": 6728,
      "Böyük▁": 6729,
      "erik": 6730,
      "tən": 6731,
      "müəyyən▁": 6732,
      "ologiya▁": 6733,
      "aprel": 6734,
      "i.▁": 6735,
      "ilin▁": 6736,
      "▁məs": 6737,
      "üzvü": 6738,
      "sür": 6739,
      "İstinadlar\n\nHəmçinin▁bax": 6740,
      "Azərbaycanda▁": 6741,
      "müdafi": 6742,
      "deyil": 6743,
      "apon": 6744,
      "axçı": 6745,
      "ikinci▁": 6746,
      "▁cinsinə▁aid": 6747,
      "Ay": 6748,
      "iri▁": 6749,
      "mür": 6750,
      "müşdür": 6751,
      "C▁": 6752,
      "jurnal": 6753,
      "tərkib": 6754,
      "xar": 6755,
      "ısı▁": 6756,
      "rej": 6757,
      "atal": 6758,
      "ur.\n\n": 6759,
      "qayı": 6760,
      "pol": 6761,
      "avqust": 6762,
      "Qaz": 6763,
      "pan": 6764,
      "çevr": 6765,
      "nəşr": 6766,
      "dıq": 6767,
      "əməliyyat": 6768,
      "ələr▁": 6769,
      "ağı": 6770,
      "о▁": 6771,
      "Elm": 6772,
      "qərb": 6773,
      "\"M": 6774,
      "ht": 6775,
      "kv": 6776,
      "kiç": 6777,
      "Ər": 6778,
      "mübar": 6779,
      "▁medalı▁": 6780,
      "ayt": 6781,
      "met": 6782,
      "ərazi▁": 6783,
      "duq": 6784,
      "qey": 6785,
      "aşdır": 6786,
      "eb": 6787,
      "cəm": 6788,
      "istehsal": 6789,
      "qıs": 6790,
      "bitir": 6791,
      "limp": 6792,
      "müəllif": 6793,
      "▁fəsiləsinin▁▁cinsinə▁aid": 6794,
      "Olimp": 6795,
      "Azərbaycan▁Respublikasının▁": 6796,
      "kən": 6797,
      "Lakin▁": 6798,
      "ers": 6799,
      "vaxt": 6800,
      "köç": 6801,
      "təhsil▁": 6802,
      "münasib": 6803,
      "Pol": 6804,
      "dim": 6805,
      "▁X": 6806,
      ",▁200": 6807,
      "əşf": 6808,
      "▁keç": 6809,
      "bildir": 6810,
      "adına▁": 6811,
      "ılmışdır.▁": 6812,
      "ib▁": 6813,
      "tanın": 6814,
      "ərhəl": 6815,
      "Kənd": 6816,
      "istifadə▁olun": 6817,
      "▁son": 6818,
      "SSRİ": 6819,
      "uyğ": 6820,
      "su": 6821,
      "yenidən▁": 6822,
      "unla▁": 6823,
      "Alman": 6824,
      "iyası": 6825,
      "səl": 6826,
      "çı▁": 6827,
      "olm": 6828,
      "rəq": 6829,
      "eft": 6830,
      "xüsusi▁": 6831,
      "əlik": 6832,
      "Qafqaz": 6833,
      "issor": 6834,
      "liyinin▁": 6835,
      "futbol": 6836,
      "əkk": 6837,
      "and▁": 6838,
      "2▁": 6839,
      "X▁əsr": 6840,
      "haqqında▁": 6841,
      "təkl": 6842,
      "▁səh": 6843,
      "Avropa▁": 6844,
      "ələrdə▁": 6845,
      "▁bəy": 6846,
      "ен": 6847,
      "yaxşı▁": 6848,
      "iymət": 6849,
      "sa▁": 6850,
      "qab": 6851,
      "şimal": 6852,
      "▁ilə▁": 6853,
      "nəticəsində▁": 6854,
      "tima": 6855,
      "Ad": 6856,
      "hücum": 6857,
      "3-cü▁il": 6858,
      "At": 6859,
      "iq▁": 6860,
      "İkinci▁": 6861,
      "Pr": 6862,
      "hazırlan": 6863,
      "sə▁": 6864,
      "proqram": 6865,
      "ğul": 6866,
      "Üm": 6867,
      "irz": 6868,
      "ların": 6869,
      "həm▁də▁": 6870,
      "ektor": 6871,
      "oğraf": 6872,
      "sin": 6873,
      "milli▁": 6874,
      "fr": 6875,
      "Osmanlı▁": 6876,
      "ıx": 6877,
      "İngil": 6878,
      "kin▁": 6879,
      "u▁ilə▁": 6880,
      "XV": 6881,
      "azım": 6882,
      "lar▁və▁": 6883,
      "sax": 6884,
      "ль": 6885,
      "belə▁": 6886,
      "und": 6887,
      "▁senty": 6888,
      "ılığ": 6889,
      "ətin▁": 6890,
      "hərək": 6891,
      "mədəniyyət": 6892,
      "Naxçı": 6893,
      "ermən": 6894,
      "mon": 6895,
      "ızı▁": 6896,
      "fəaliyyət▁göstər": 6897,
      "görüş": 6898,
      ":\n\n": 6899,
      "part": 6900,
      "səh": 6901,
      "ürk▁": 6902,
      "mükaf": 6903,
      "aray": 6904,
      "zibati▁": 6905,
      "ində": 6906,
      "görə,▁": 6907,
      "fik": 6908,
      "Qur": 6909,
      "ır▁və▁": 6910,
      "-ci▁il▁tarix": 6911,
      "Azərbaycan": 6912,
      "▁film": 6913,
      "Te": 6914,
      "Oyun": 6915,
      "ava▁": 6916,
      ",▁M": 6917,
      "a▁keçir": 6918,
      "ədəbiyyat": 6919,
      "du.\n\n": 6920,
      "urs": 6921,
      "4-cü▁il": 6922,
      "\n▁\n▁": 6923,
      "anlar\n": 6924,
      "a▁bil": 6925,
      "əldə▁": 6926,
      "yaxın": 6927,
      "yan▁": 6928,
      "dilər.▁": 6929,
      "▁yaz": 6930,
      "mr": 6931,
      "As": 6932,
      "hər": 6933,
      "təbi": 6934,
      "acaq": 6935,
      "musiq": 6936,
      "avə▁": 6937,
      "lüy": 6938,
      "bölg": 6939,
      "urada▁": 6940,
      "ıstan▁": 6941,
      "▁nəfər▁": 6942,
      "əstəl": 6943,
      "end": 6944,
      "təltif": 6945,
      "əssam": 6946,
      "▁bir▁": 6947,
      "mışdır": 6948,
      "eral": 6949,
      "ləri,▁": 6950,
      "Ədə": 6951,
      "rol": 6952,
      "zər": 6953,
      "atur": 6954,
      ",▁S": 6955,
      "həmçinin▁": 6956,
      "ан": 6957,
      "heç": 6958,
      "ahid": 6959,
      "təsvir": 6960,
      "▁bir": 6961,
      "texn": 6962,
      "hüquq": 6963,
      "təmin▁": 6964,
      "ian": 6965,
      "qoş": 6966,
      "bal": 6967,
      "di.▁B": 6968,
      ".\n\nHəyatı▁\n": 6969,
      "ümü": 6970,
      "inal": 6971,
      "yox": 6972,
      "▁qəd": 6973,
      "▁hesab": 6974,
      "əviyy": 6975,
      "adıc": 6976,
      "asitəsilə▁": 6977,
      "inə▁görə▁": 6978,
      "▁sistem": 6979,
      "duz": 6980,
      "▁kitab": 6981,
      "ır,▁": 6982,
      "Yapon": 6983,
      "\"▁medalı▁": 6984,
      "yor": 6985,
      "Azərbaycan▁Respublikası▁": 6986,
      "▁for": 6987,
      "li": 6988,
      "iliy": 6989,
      "qərar": 6990,
      "əmək": 6991,
      "bom": 6992,
      "edərək▁": 6993,
      "tifaq": 6994,
      "▁müharib": 6995,
      "▁edilmişdir.\n\n": 6996,
      "məc": 6997,
      "ли": 6998,
      "münasibət": 6999,
      "iya▁və▁": 7000,
      "Dünya▁": 7001,
      "land": 7002,
      "ili▁": 7003,
      "Göy": 7004,
      "▁the▁": 7005,
      "əhrəm": 7006,
      "blem": 7007,
      "get": 7008,
      "GC▁": 7009,
      "▁▁▁▁▁▁▁▁": 7010,
      "iyas": 7011,
      "▁bitki▁": 7012,
      "əks": 7013,
      "40": 7014,
      "ars": 7015,
      "yalnız": 7016,
      "təşkilat": 7017,
      "başladı": 7018,
      "Bu▁": 7019,
      "-dən▁": 7020,
      "ləy": 7021,
      "asir": 7022,
      "In": 7023,
      "▁tip": 7024,
      "ləri▁ilə▁": 7025,
      "götür": 7026,
      "Təb": 7027,
      "eht": 7028,
      "a▁(": 7029,
      "essor": 7030,
      "dad": 7031,
      "proses": 7032,
      "▁E": 7033,
      "Ümum": 7034,
      "Türkiy": 7035,
      "işğal": 7036,
      "görə": 7037,
      "iştirak▁et": 7038,
      "\nM": 7039,
      "▁edilmiş": 7040,
      "kilər": 7041,
      "Həmçinin▁bax▁\n▁": 7042,
      "St": 7043,
      "ə▁və▁": 7044,
      "başlan": 7045,
      "Qüvv": 7046,
      "ni▁": 7047,
      "əhəmiyyət": 7048,
      "2000": 7049,
      "rayonunda▁": 7050,
      "iyaya▁": 7051,
      ".▁—▁": 7052,
      "ətbiq": 7053,
      "müst": 7054,
      "ları,▁": 7055,
      "▁böl": 7056,
      "növü.\n\n": 7057,
      "oktor": 7058,
      "öldür": 7059,
      "Mənbə▁": 7060,
      "Gürc": 7061,
      "Hüs": 7062,
      "Hac": 7063,
      "əsi,▁": 7064,
      "kəşf": 7065,
      "ras": 7066,
      "prof": 7067,
      "Kor": 7068,
      "ərzində▁": 7069,
      "1▁": 7070,
      "təsir": 7071,
      "itan": 7072,
      "▁qar": 7073,
      "▁olunmuş": 7074,
      "qul": 7075,
      "plan": 7076,
      "birinci▁": 7077,
      "Vət": 7078,
      "lər▁və▁": 7079,
      "is▁": 7080,
      "Şəh": 7081,
      "ро": 7082,
      "olduğu▁": 7083,
      "rüf": 7084,
      "Ord": 7085,
      "Əliyev": 7086,
      "akı,▁": 7087,
      "frans": 7088,
      "oh": 7089,
      "Məhəm": 7090,
      "2012": 7091,
      "maqla▁": 7092,
      "İtal": 7093,
      "kin": 7094,
      "Sər": 7095,
      "gül": 7096,
      "əsgər": 7097,
      "məhsul": 7098,
      "ı\n\n": 7099,
      "▁dek": 7100,
      "Əh": 7101,
      "e,▁": 7102,
      "burada▁": 7103,
      "Şir": 7104,
      "söz": 7105,
      "qazan": 7106,
      "ıra▁": 7107,
      "100": 7108,
      "emar": 7109,
      "Şimal": 7110,
      "ide": 7111,
      "ları▁ilə▁": 7112,
      "aks": 7113,
      "luğu▁": 7114,
      "Olimpiya▁": 7115,
      "ex": 7116,
      "tək": 7117,
      "Əhalisi▁": 7118,
      "Xalq": 7119,
      "ank": 7120,
      "inş": 7121,
      "▁qaz": 7122,
      "mövcud": 7123,
      "ium": 7124,
      "abrın▁": 7125,
      "189": 7126,
      "ul▁": 7127,
      "tel": 7128,
      "baxmay": 7129,
      "-i▁": 7130,
      "ərazisində▁": 7131,
      "dair": 7132,
      "\nS": 7133,
      "ilmişdir.▁": 7134,
      "че": 7135,
      "2015": 7136,
      "ны": 7137,
      "əsiz": 7138,
      "▁tərəf": 7139,
      "all": 7140,
      "tom": 7141,
      "am▁": 7142,
      "ırdı.▁": 7143,
      "\n▁M": 7144,
      "Rom": 7145,
      "yetir": 7146,
      "▁etmişdir.▁": 7147,
      "day": 7148,
      "imk": 7149,
      "öyrən": 7150,
      "▁etdi.▁": 7151,
      "gir": 7152,
      "daxil▁olan▁": 7153,
      "\"B": 7154,
      "birləş": 7155,
      "ilahlı▁": 7156,
      "illərdə▁": 7157,
      "istifadə▁edil": 7158,
      "▁sən": 7159,
      "uşaq": 7160,
      "Cənubi▁": 7161,
      "▁etdiyi▁": 7162,
      "məl": 7163,
      "Universitetinin▁": 7164,
      "ог": 7165,
      "ilayət": 7166,
      "Ədəbiyyat": 7167,
      "məğ": 7168,
      "cəh": 7169,
      "dünya▁": 7170,
      "İslam": 7171,
      "2011": 7172,
      "sənəd": 7173,
      "80": 7174,
      "ırdı": 7175,
      "İq": 7176,
      "oyn": 7177,
      "те": 7178,
      "alim": 7179,
      "Yar": 7180,
      "ərhəd": 7181,
      "yerinə▁": 7182,
      "gənc": 7183,
      "akül": 7184,
      "mək▁olar": 7185,
      "▁noy": 7186,
      "▁sm": 7187,
      "osial": 7188,
      "elekt": 7189,
      "tədqiqat": 7190,
      "ayd": 7191,
      "qət": 7192,
      "yarım": 7193,
      "azərbayc": 7194,
      "▁mart": 7195,
      "▁olub": 7196,
      "ед": 7197,
      "problem": 7198,
      "görün": 7199,
      "uğrunda▁": 7200,
      "yanaş": 7201,
      "kən▁": 7202,
      "Pro": 7203,
      "yaxın▁": 7204,
      "ir.▁B": 7205,
      "aları": 7206,
      "ud▁": 7207,
      "fer": 7208,
      "şəkildə▁": 7209,
      "qüvv": 7210,
      "əssis": 7211,
      "Qız": 7212,
      "ser": 7213,
      "Türkiyə▁": 7214,
      "təc": 7215,
      "zadə▁": 7216,
      "uzun▁": 7217,
      "oskv": 7218,
      "məğlub": 7219,
      "ев": 7220,
      "atının▁": 7221,
      "alət": 7222,
      "isinin▁": 7223,
      "əlavə▁": 7224,
      "əhat": 7225,
      "görül": 7226,
      "ünə▁": 7227,
      "-da▁": 7228,
      "Gürcüst": 7229,
      "Qal": 7230,
      "dar▁": 7231,
      "3▁": 7232,
      "nis": 7233,
      "ibb": 7234,
      "ial▁": 7235,
      "kəs": 7236,
      "es▁": 7237,
      "inzibati▁": 7238,
      "2008": 7239,
      "oktyabr▁": 7240,
      "təqdim": 7241,
      "adi": 7242,
      "Nazir": 7243,
      "təmsil": 7244,
      "lar.\n\n": 7245,
      "▁z": 7246,
      "mən▁": 7247,
      "bir▁çox": 7248,
      "ictima": 7249,
      "başlamış": 7250,
      "prezident": 7251,
      "hökum": 7252,
      "ilir.▁": 7253,
      "Həmin▁": 7254,
      "məşğul": 7255,
      "▁Əliyev": 7256,
      "müqav": 7257,
      "▁olur": 7258,
      "idir.\n\n": 7259,
      "ərazilər": 7260,
      ",▁B": 7261,
      "ılar": 7262,
      "ara▁": 7263,
      "la": 7264,
      "eder": 7265,
      "▁dəst": 7266,
      "ında": 7267,
      "abit": 7268,
      "İranın▁": 7269,
      "70": 7270,
      "idə": 7271,
      "anal": 7272,
      "minən▁": 7273,
      "qol": 7274,
      "və▁s": 7275,
      "uç": 7276,
      "-cu▁ildə▁": 7277,
      "\nN": 7278,
      "həyata▁keçir": 7279,
      "rəng": 7280,
      "ədən": 7281,
      "ad▁": 7282,
      "açıq": 7283,
      "layih": 7284,
      "▁təs": 7285,
      "iyyətinin▁": 7286,
      "ian▁": 7287,
      "eyri-": 7288,
      "əmiş": 7289,
      "ар": 7290,
      "əvəz": 7291,
      "məsəl": 7292,
      "təhlük": 7293,
      ".▁D": 7294,
      "ametr": 7295,
      "ultan▁": 7296,
      "▁üçün▁": 7297,
      "idi.\n\n": 7298,
      "daşı▁": 7299,
      "əlb": 7300,
      "anbul": 7301,
      "▁metr": 7302,
      "ajlı▁": 7303,
      "əsi▁ilə▁": 7304,
      "dım": 7305,
      "enin▁": 7306,
      "ilab": 7307,
      "▁hey": 7308,
      "xal": 7309,
      "üny": 7310,
      "poz": 7311,
      "ın,▁": 7312,
      "60": 7313,
      "lü▁": 7314,
      "ini,▁": 7315,
      "(film,▁": 7316,
      "kəndləri": 7317,
      "ərkəzi▁": 7318,
      "eyt": 7319,
      "edir.▁": 7320,
      "insan": 7321,
      "ци": 7322,
      "İm": 7323,
      "əsl": 7324,
      "▁min▁": 7325,
      "qid": 7326,
      "sistem": 7327,
      "▁olunan▁": 7328,
      "bəzi▁": 7329,
      "i.\n\n": 7330,
      "5▁": 7331,
      "laq": 7332,
      "iyasında▁": 7333,
      "işləy": 7334,
      "rejissor": 7335,
      "şirk": 7336,
      "idarə▁": 7337,
      "İş": 7338,
      "▁(film,▁": 7339,
      "əlsəf": 7340,
      "ütün▁": 7341,
      "qiymət": 7342,
      "insan▁": 7343,
      "əsasında▁": 7344,
      "4▁": 7345,
      "ümumi▁": 7346,
      "elan▁": 7347,
      "qarşıs": 7348,
      "istiqamətində▁": 7349,
      "▁top": 7350,
      "aktyor": 7351,
      "komand": 7352,
      "▁edir.\n\n": 7353,
      "İstanbul": 7354,
      "ilahlı▁Qüvv": 7355,
      "Öz": 7356,
      "maz": 7357,
      "dör": 7358,
      "eyn▁": 7359,
      "12.": 7360,
      "med": 7361,
      "bin": 7362,
      "mayıl": 7363,
      "araq,▁": 7364,
      "lığında▁": 7365,
      "Son": 7366,
      "aların▁": 7367,
      "təklif": 7368,
      "atın▁": 7369,
      "lk": 7370,
      "uğur": 7371,
      "iyaz": 7372,
      "Prezidenti▁": 7373,
      "\n\nİstinadlar▁\n\n": 7374,
      "▁mily": 7375,
      "Təh": 7376,
      "2007": 7377,
      "zamanda▁": 7378,
      "IS": 7379,
      "yazı": 7380,
      "dikdən▁sonra▁": 7381,
      "məsinə▁": 7382,
      "х▁": 7383,
      "qoyul": 7384,
      "imz": 7385,
      "▁bitki▁növü.\n\n": 7386,
      "mk": 7387,
      "əminin▁": 7388,
      "ətt": 7389,
      "Qazax": 7390,
      "a▁bilər": 7391,
      "tamam": 7392,
      "▁olunur": 7393,
      "2017": 7394,
      "Ermənistan▁": 7395,
      "nik": 7396,
      "ber": 7397,
      "dı▁və▁": 7398,
      "veç": 7399,
      "əzər": 7400,
      "ömr": 7401,
      "tern": 7402,
      ". ": 7403,
      "İsmayıl": 7404,
      "adam": 7405,
      "eq": 7406,
      "əsas▁": 7407,
      "▁Av": 7408,
      "lav": 7409,
      "mış▁": 7410,
      "▁seç": 7411,
      "ələrə▁": 7412,
      "\"D": 7413,
      "İlk▁": 7414,
      "▁edilməsi▁": 7415,
      "irlər": 7416,
      "\n▁\n\n": 7417,
      "baş▁tut": 7418,
      "eym": 7419,
      "siyasi▁": 7420,
      "reg": 7421,
      "ökm": 7422,
      "müdafiə▁": 7423,
      ".▁H": 7424,
      "5-": 7425,
      "dən▁sonr": 7426,
      "adlandır": 7427,
      "Əhalisi▁\n": 7428,
      "▁həm": 7429,
      "beynəlxalq": 7430,
      "▁dövlət": 7431,
      "Çempion": 7432,
      "▁fəsiləsinin▁▁cinsinə▁aid▁bitki▁növü.\n\n": 7433,
      "2019": 7434,
      "çısı▁": 7435,
      "Akadem": 7436,
      "ına▁görə▁": 7437,
      "ement": 7438,
      "İlham": 7439,
      "danış": 7440,
      "Silahlı▁Qüvv": 7441,
      "ruk": 7442,
      "şair": 7443,
      "əcə▁": 7444,
      "▁sonra▁": 7445,
      "təxminən▁": 7446,
      "fil": 7447,
      "xarici▁": 7448,
      "ib.\n\n": 7449,
      "ont": 7450,
      "dən,▁": 7451,
      "fər": 7452,
      "də▁alın": 7453,
      "baz": 7454,
      "əncam": 7455,
      "mümk": 7456,
      "Uk": 7457,
      "əhatə▁": 7458,
      "▁fevr": 7459,
      "tarixi▁": 7460,
      "Anc": 7461,
      "ски": 7462,
      "brah": 7463,
      "dəqiq": 7464,
      "unc": 7465,
      "vəziyyət": 7466,
      "ununla▁": 7467,
      "ew": 7468,
      "u▁(": 7469,
      "Aş": 7470,
      "ilis": 7471,
      "Avstr": 7472,
      "əsəb": 7473,
      "ılı▁": 7474,
      "usunun▁": 7475,
      "lə,▁": 7476,
      "məx": 7477,
      "mayan▁": 7478,
      "hadis": 7479,
      "▁Ar": 7480,
      "ıcı▁": 7481,
      "ərim": 7482,
      "keçirilən▁": 7483,
      "miş,▁": 7484,
      "Ukray": 7485,
      "öb": 7486,
      "dul": 7487,
      "ındakı▁": 7488,
      "▁haqqında▁": 7489,
      "landır": 7490,
      "itə": 7491,
      "professor": 7492,
      "Beynəlxalq": 7493,
      "bir▁sıra▁": 7494,
      "İran▁": 7495,
      ".12.": 7496,
      "çisi▁": 7497,
      "ərazisinə▁": 7498,
      "kənd.\n\n": 7499,
      "▁yay": 7500,
      "ener": 7501,
      "▁An": 7502,
      "gələn▁": 7503,
      "sus": 7504,
      "2021": 7505,
      "Ey": 7506,
      "i▁M": 7507,
      "val": 7508,
      "ilk▁dəfə▁": 7509,
      ".▁T": 7510,
      "▁döyüş": 7511,
      "Əb": 7512,
      "aat": 7513,
      "din": 7514,
      "i\"▁": 7515,
      "əcəy": 7516,
      "əsərrüf": 7517,
      "ation": 7518,
      "yarat": 7519,
      "sev": 7520,
      "ələrini▁": 7521,
      "qəddəs": 7522,
      "pa▁": 7523,
      "ı\n▁": 7524,
      "irə▁": 7525,
      "doktor": 7526,
      "ayf": 7527,
      "əbs": 7528,
      "rik": 7529,
      "lor": 7530,
      "ra": 7531,
      ").\n\n": 7532,
      "ərg": 7533,
      "adakı▁": 7534,
      "əndə": 7535,
      "dii▁": 7536,
      "çəkil": 7537,
      "lazım": 7538,
      "ти": 7539,
      "3-": 7540,
      "Fransa▁": 7541,
      "▁etmək▁": 7542,
      "dir.▁B": 7543,
      "torpaq": 7544,
      "miş▁": 7545,
      "izam": 7546,
      "ral": 7547,
      "eviz": 7548,
      "su▁": 7549,
      "lük▁": 7550,
      "▁hal": 7551,
      "Naxçıvan▁": 7552,
      "▁qəzet": 7553,
      "▁edilmişdir.▁": 7554,
      "▁olm": 7555,
      "2-": 7556,
      "müstəq": 7557,
      "çu▁": 7558,
      "Müh": 7559,
      "ünas": 7560,
      "sen": 7561,
      "▁may▁": 7562,
      "işi▁": 7563,
      "oxum": 7564,
      "inf": 7565,
      ".▁K": 7566,
      "ка": 7567,
      "anlı": 7568,
      "təz": 7569,
      "məlum": 7570,
      "qaç": 7571,
      "ağac": 7572,
      "siyahıs": 7573,
      "əmələ▁": 7574,
      "2018": 7575,
      "ölçül": 7576,
      "mükafat": 7577,
      "ttifaq": 7578,
      "ziy": 7579,
      "ları▁və▁": 7580,
      "oks": 7581,
      "le": 7582,
      "ürcü": 7583,
      "burax": 7584,
      "▁deyil": 7585,
      "İqtisad": 7586,
      "ləri▁və▁": 7587,
      "geri▁": 7588,
      "əth": 7589,
      "▁aləminin▁": 7590,
      "ölümündən▁sonra▁": 7591,
      "abiq": 7592,
      "onim": 7593,
      "▁-▁": 7594,
      "ən▁böyük▁": 7595,
      "Yer": 7596,
      "Bal": 7597,
      "təhsil▁al": 7598,
      "qədim": 7599,
      "▁hissəsi▁": 7600,
      "▁()▁—▁▁aləminin▁": 7601,
      "ınt": 7602,
      "ılmışdır.\n\n": 7603,
      "Britan": 7604,
      "ıya▁": 7605,
      "ij": 7606,
      "▁olduğu▁": 7607,
      "qeydə▁alın": 7608,
      "▁dəstəsinin▁": 7609,
      "kat": 7610,
      "ıb.\n\n": 7611,
      "artıq": 7612,
      "etibar": 7613,
      "diyini▁": 7614,
      "hərəkət": 7615,
      "▁olmuşdur.▁": 7616,
      "orq": 7617,
      "▁tap": 7618,
      "▁klub": 7619,
      "erb": 7620,
      "tətbiq": 7621,
      "ол": 7622,
      "red": 7623,
      "oper": 7624,
      "İngiltər": 7625,
      "ağın▁": 7626,
      "aktor": 7627,
      "arasın": 7628,
      "▁kon": 7629,
      "Gün": 7630,
      "pir": 7631,
      ",▁lakin▁": 7632,
      "düy": 7633,
      "türk": 7634,
      "alar▁": 7635,
      "▁edən": 7636,
      "san": 7637,
      "▁iyun▁": 7638,
      "yerli▁": 7639,
      "ənən": 7640,
      "universitet": 7641,
      "xat": 7642,
      "▁vəz": 7643,
      "əndaş": 7644,
      "188": 7645,
      "dəfn▁": 7646,
      "Moskv": 7647,
      "mızı▁": 7648,
      "u-": 7649,
      "Vətən▁": 7650,
      "ks": 7651,
      "İlham▁Əliyev": 7652,
      "doğulanlar\n": 7653,
      "Olimpiya▁Oyun": 7654,
      "dol": 7655,
      "işə▁": 7656,
      "1992": 7657,
      "ostanının▁": 7658,
      "1-": 7659,
      "Orta▁": 7660,
      "vahid": 7661,
      "ov▁(": 7662,
      "adını▁": 7663,
      "Azərbaycan▁SSR": 7664,
      "una▁görə▁": 7665,
      "N▁": 7666,
      "▁Ab": 7667,
      "lar\n": 7668,
      "iqtisadi▁": 7669,
      "47": 7670,
      "ativ": 7671,
      "anlıq": 7672,
      "boy": 7673,
      "pul": 7674,
      "səs": 7675,
      "ır.▁B": 7676,
      "gah": 7677,
      "yaradıc": 7678,
      "şəhristanının▁": 7679,
      "akter": 7680,
      "tic": 7681,
      "məqal": 7682,
      "ron": 7683,
      "aktik": 7684,
      ".12.2020": 7685,
      "şey": 7686,
      "uxarı▁": 7687,
      "▁məlumat": 7688,
      "ru▁": 7689,
      "istəy": 7690,
      "a\"": 7691,
      "Ən▁": 7692,
      "anr": 7693,
      "ow": 7694,
      "ikl": 7695,
      "2006-cı▁il": 7696,
      "cins": 7697,
      "tutul": 7698,
      "alarında▁": 7699,
      "▁–▁": 7700,
      "uyğun▁": 7701,
      "▁şəhər": 7702,
      "oloq": 7703,
      ":▁\"": 7704,
      "izəd": 7705,
      "▁daha▁": 7706,
      "yerinə▁yetir": 7707,
      "8-": 7708,
      "Respublikasının▁": 7709,
      "ümun": 7710,
      "ütl": 7711,
      "əqiq": 7712,
      "fiz": 7713,
      "rəsmi▁": 7714,
      "ge": 7715,
      "təltif▁edil": 7716,
      "ubok": 7717,
      "gey": 7718,
      "Şur": 7719,
      "mübarizə▁": 7720,
      "göl": 7721,
      "a\n▁": 7722,
      "birləşdir": 7723,
      "olmuş": 7724,
      "dövründə▁": 7725,
      "▁şək": 7726,
      "ılır.▁": 7727,
      "dır.▁B": 7728,
      "Əf": 7729,
      "məxsus": 7730,
      "miq": 7731,
      "iləri▁": 7732,
      "▁olmuş": 7733,
      "kəl": 7734,
      "-ci▁il▁tarixli▁": 7735,
      "2005": 7736,
      "lanan▁": 7737,
      "çempion": 7738,
      "inin,▁": 7739,
      "ler": 7740,
      "ört": 7741,
      "-şərq": 7742,
      "Kam": 7743,
      "li,▁": 7744,
      "Hind": 7745,
      "▁aprel": 7746,
      ".▁Bakı": 7747,
      "layiq▁": 7748,
      "▁mərhəl": 7749,
      "од": 7750,
      "\"T": 7751,
      "mişdi.▁": 7752,
      "silah": 7753,
      "▁dərəc": 7754,
      "dayan": 7755,
      "ingilis": 7756,
      "▁kil": 7757,
      "()▁—▁": 7758,
      "ps": 7759,
      "xəstəl": 7760,
      "dur.\n\n": 7761,
      ",▁b": 7762,
      "xəb": 7763,
      "ов▁": 7764,
      "lament": 7765,
      "▁edilən▁": 7766,
      "sağ": 7767,
      "meyd": 7768,
      "urnir": 7769,
      "yaşayış": 7770,
      "cav": 7771,
      "aşağı▁": 7772,
      "Məc": 7773,
      "▁dekabr▁": 7774,
      "Ch": 7775,
      "Qır": 7776,
      "mühüm": 7777,
      "ələrinə▁": 7778,
      "əhalisi▁": 7779,
      "▁yanvar▁": 7780,
      "erika▁": 7781,
      "sədr": 7782,
      "dərəc": 7783,
      "-ə▁": 7784,
      "\n▁B": 7785,
      "alarının▁": 7786,
      "▁l": 7787,
      "aşağı": 7788,
      "dön": 7789,
      "▁O": 7790,
      "qanun": 7791,
      "ism": 7792,
      "avtom": 7793,
      ".M": 7794,
      "Tarixi▁\n": 7795,
      "ması": 7796,
      "ski▁": 7797,
      "ərəb": 7798,
      "Əsas": 7799,
      "в▁": 7800,
      "di.▁Bu▁": 7801,
      "sənədli▁": 7802,
      "▁medal": 7803,
      "Re": 7804,
      "əxri▁": 7805,
      "i▁olan▁": 7806,
      "miş▁və▁": 7807,
      "ətli▁": 7808,
      "▁həyat": 7809,
      "ament": 7810,
      "layiq▁görül": 7811,
      "onlar▁": 7812,
      "brahim": 7813,
      "asiy": 7814,
      "ülh": 7815,
      "eter": 7816,
      "məyi▁": 7817,
      "azad▁olun": 7818,
      "irzə▁": 7819,
      "üzul": 7820,
      "Dağ": 7821,
      "Komit": 7822,
      "şe": 7823,
      "▁üz": 7824,
      "Şərqi▁": 7825,
      "▁sentyabr▁": 7826,
      "187": 7827,
      "sayı▁": 7828,
      "Qarabağ▁müharib": 7829,
      "▁milyon▁": 7830,
      "ləğ": 7831,
      "Əli▁": 7832,
      "çap": 7833,
      "Daha▁": 7834,
      "əddin▁": 7835,
      "üsul": 7836,
      "Şuş": 7837,
      "çis": 7838,
      "istifadə▁et": 7839,
      "asiyası▁": 7840,
      "Şimali▁": 7841,
      "ansı▁": 7842,
      "masında▁": 7843,
      "ecə▁": 7844,
      "çevril": 7845,
      "▁qazan": 7846,
      "po": 7847,
      "ekay": 7848,
      "eput": 7849,
      "ider": 7850,
      "okrat": 7851,
      "yığ": 7852,
      "şır": 7853,
      "sız": 7854,
      "35": 7855,
      "Di": 7856,
      "▁avqust": 7857,
      "aytaxt": 7858,
      "ин": 7859,
      "i:▁": 7860,
      "▁bölg": 7861,
      "ətta▁": 7862,
      "rüb": 7863,
      "Qızıl": 7864,
      "1–": 7865,
      ",▁199": 7866,
      "▁dağ": 7867,
      "▁daş": 7868,
      "inşa▁": 7869,
      "rəssam": 7870,
      "anadan▁olub": 7871,
      "\nB": 7872,
      "aci": 7873,
      "sat": 7874,
      "mahn": 7875,
      "oviç": 7876,
      "▁te": 7877,
      "Sal": 7878,
      "İc": 7879,
      "formal": 7880,
      "▁nazir": 7881,
      "müşah": 7882,
      "burq": 7883,
      "dövlət▁": 7884,
      "irəl": 7885,
      "az▁": 7886,
      "türk▁": 7887,
      "▁saylı▁": 7888,
      "bir▁q": 7889,
      "an-": 7890,
      "ayında▁": 7891,
      "\"▁adlı▁": 7892,
      "o-": 7893,
      "nümayiş": 7894,
      "ma": 7895,
      "adır.▁": 7896,
      "ıdır.▁": 7897,
      "əhalinin▁": 7898,
      "ülal": 7899,
      "▁noyabr▁": 7900,
      "ılaş": 7901,
      "ametrajlı▁": 7902,
      "Qərbi▁": 7903,
      "qayıt": 7904,
      "lat": 7905,
      ".▁A": 7906,
      "aşkar": 7907,
      "qeyri-": 7908,
      "şünas": 7909,
      "orc": 7910,
      "məcbur": 7911,
      "2009": 7912,
      "xanım": 7913,
      "▁vasitəsilə▁": 7914,
      ".5": 7915,
      "-bir": 7916,
      "dəmir": 7917,
      "ük▁": 7918,
      "divar": 7919,
      "Kitab": 7920,
      "zəng": 7921,
      "vilayət": 7922,
      "uf": 7923,
      "▁Z": 7924,
      "ixtis": 7925,
      "ali▁": 7926,
      "Qr": 7927,
      "iddi": 7928,
      "ени": 7929,
      "lər.\n\n": 7930,
      "ənn": 7931,
      "masının▁": 7932,
      "dam": 7933,
      "ww": 7934,
      "əlaqəd": 7935,
      "yaşayan▁": 7936,
      "\n|": 7937,
      "rayonu▁": 7938,
      "ayram": 7939,
      "əzi▁": 7940,
      "araşdır": 7941,
      "ünki▁": 7942,
      "2014": 7943,
      "▁etmişdir.\n\n": 7944,
      "in▁və▁": 7945,
      "sır": 7946,
      "ror": 7947,
      "ərç": 7948,
      "odel": 7949,
      "qızıl": 7950,
      "2013": 7951,
      ".▁N": 7952,
      "rəsm": 7953,
      "ınc": 7954,
      ".▁(": 7955,
      "orp": 7956,
      "iz▁": 7957,
      "iştirak": 7958,
      "▁sayt": 7959,
      "dey": 7960,
      "hakimiyyət": 7961,
      "tab": 7962,
      "ına▁əsasən▁": 7963,
      "▁ildə▁": 7964,
      "şəhər▁": 7965,
      "Sərəncam": 7966,
      "bərab": 7967,
      "ləşmiş": 7968,
      "əri▁": 7969,
      "ehtiy": 7970,
      "yat": 7971,
      "\"▁və▁": 7972,
      "ari▁": 7973,
      "ild": 7974,
      "gə▁": 7975,
      "giz": 7976,
      "ə)": 7977,
      "2016": 7978,
      "Füzul": 7979,
      "▁məntəq": 7980,
      ",5": 7981,
      "mey": 7982,
      "▁tarixində▁": 7983,
      "əcək": 7984,
      "region": 7985,
      "gi▁": 7986,
      "görə\"▁medalı▁": 7987,
      "ork": 7988,
      "ISB": 7989,
      "Kan": 7990,
      "ə.▁": 7991,
      "▁komand": 7992,
      "stat": 7993,
      "yekt": 7994,
      "X▁əsrin▁": 7995,
      "ələ▁keçir": 7996,
      "▁tipli▁": 7997,
      "unlaş": 7998,
      "xüsusiyyət": 7999,
      "gəm": 8000,
      "örp": 8001,
      "”▁": 8002,
      "gedən▁": 8003,
      "davam▁etdir": 8004,
      "barədə▁": 8005,
      "dek": 8006,
      "Hərbi▁": 8007,
      "186": 8008,
      "Şam": 8009,
      "əcək▁": 8010,
      ".▁▁": 8011,
      "ehr": 8012,
      "gözəl": 8013,
      "alın▁": 8014,
      "Türk▁": 8015,
      "Tr": 8016,
      "in▁s": 8017,
      "Ray": 8018,
      "▁hazır": 8019,
      "Ant": 8020,
      "ped": 8021,
      "açı": 8022,
      "ürcü▁": 8023,
      "ələd": 8024,
      "əql": 8025,
      "\n\nM": 8026,
      "Ur": 8027,
      "fərqli▁": 8028,
      "müs": 8029,
      "ı-": 8030,
      "adın": 8031,
      "Mənbə▁\n▁": 8032,
      "əhud": 8033,
      "Part": 8034,
      "..": 8035,
      "təyin▁edil": 8036,
      "e-": 8037,
      "həsr": 8038,
      "şərait": 8039,
      "element": 8040,
      "ükaf": 8041,
      "1980": 8042,
      "üstün": 8043,
      "▁mart▁": 8044,
      "▁söz": 8045,
      "▁fəaliyyət": 8046,
      "iyah": 8047,
      "ми": 8048,
      "2002": 8049,
      "\"N": 8050,
      "dipl": 8051,
      "ölümündən▁sonr": 8052,
      "▁olur.▁": 8053,
      "albom": 8054,
      "ulduz": 8055,
      "məklə▁": 8056,
      "97": 8057,
      "Məh": 8058,
      "orqan": 8059,
      "İlham▁Əliyevin▁": 8060,
      "ISBN▁": 8061,
      "▁musiq": 8062,
      "Yun": 8063,
      "Coğraf": 8064,
      "▁yaşayır": 8065,
      "bərpa▁": 8066,
      "onları▁": 8067,
      "rə": 8068,
      "çılıq": 8069,
      "anə▁": 8070,
      "Səf": 8071,
      "pay": 8072,
      "altı▁": 8073,
      "ir▁ki,▁": 8074,
      "ibarət▁": 8075,
      "Ali▁": 8076,
      "keçmiş": 8077,
      "diplom": 8078,
      "ruh": 8079,
      "şəhid": 8080,
      "doğru▁": 8081,
      "olduğunu▁": 8082,
      "lığının▁": 8083,
      "adın▁": 8084,
      "inə,▁": 8085,
      "ıldı.▁": 8086,
      "▁nəşr": 8087,
      "ustaf": 8088,
      "axt▁": 8089,
      "arl": 8090,
      "kiçik": 8091,
      "quş": 8092,
      "port": 8093,
      "yum": 8094,
      "ayn": 8095,
      "stans": 8096,
      "bədii▁": 8097,
      "ы▁": 8098,
      "struk": 8099,
      "liyə▁": 8100,
      "bi": 8101,
      "əsən▁": 8102,
      "təşkil▁edir": 8103,
      "Kür": 8104,
      "ka▁": 8105,
      "▁təsərrüf": 8106,
      "▁hərək": 8107,
      "abidə": 8108,
      "əksər": 8109,
      "▁oktyabr▁": 8110,
      "ələrindən▁": 8111,
      "FA": 8112,
      "sərhəd": 8113,
      "illik": 8114,
      "adim": 8115,
      "ataloq": 8116,
      "t▁gəl": 8117,
      "tədbir": 8118,
      "kiçik▁": 8119,
      "asir▁": 8120,
      "əhəmiyyətli▁": 8121,
      "ölümündən▁sonra": 8122,
      "38": 8123,
      "mış,▁": 8124,
      "yas": 8125,
      "əl-": 8126,
      "90": 8127,
      "vol": 8128,
      "▁fevral▁": 8129,
      "▁Məmməd": 8130,
      "ərc": 8131,
      "DS": 8132,
      "ü,▁": 8133,
      "ələrlə▁": 8134,
      "oğlu": 8135,
      "min▁": 8136,
      "▁mahn": 8137,
      "İspan": 8138,
      "direktor": 8139,
      "Cav": 8140,
      "dövrdə▁": 8141,
      "orta▁məktəb": 8142,
      "Tur": 8143,
      "İstinadlar\n\nXarici▁keçidlər▁\n\n": 8144,
      "lində▁": 8145,
      "36": 8146,
      "ölçülü▁": 8147,
      "Amerika▁": 8148,
      "ibi▁": 8149,
      "mışdı.▁": 8150,
      "bi▁": 8151,
      "müsəl": 8152,
      "sənədli▁film": 8153,
      "▁ail": 8154,
      "ması▁ilə▁": 8155,
      "Azərbaycan▁Silahlı▁Qüvv": 8156,
      "işləri▁": 8157,
      "obil": 8158,
      "4-": 8159,
      "elmləri▁": 8160,
      "ос": 8161,
      "əndə▁": 8162,
      "2006": 8163,
      "inqilab": 8164,
      "qadın": 8165,
      "ə▁qədər▁": 8166,
      "emper": 8167,
      "tək▁": 8168,
      "paytaxt": 8169,
      "soy": 8170,
      "▁etməyə▁": 8171,
      "atları▁": 8172,
      "1918": 8173,
      "Amerik": 8174,
      "azal": 8175,
      "Həyat": 8176,
      "dənin▁": 8177,
      "ulu▁": 8178,
      "ərazisinə▁daxil▁olan▁": 8179,
      "qon": 8180,
      "▁daxil": 8181,
      ")▁—▁\"": 8182,
      "-nın▁": 8183,
      "1970": 8184,
      "hazırda▁": 8185,
      "eləcə▁": 8186,
      "Bakıda▁": 8187,
      "siyasət": 8188,
      "bir-bir": 8189,
      "Uz": 8190,
      "Cəm": 8191,
      "Baş▁K": 8192,
      "cavab": 8193,
      "can": 8194,
      "laşdırıl": 8195,
      "Respublikası▁": 8196,
      "məhv": 8197,
      "ilə▁təltif▁edil": 8198,
      "təsdiq": 8199,
      "don": 8200,
      "ibn▁": 8201,
      "aksiy": 8202,
      "eləlik": 8203,
      "Hüseyn": 8204,
      "olur": 8205,
      "ма": 8206,
      "diz": 8207,
      "aktiv": 8208,
      "ет": 8209,
      "İsveç": 8210,
      "Dövlət": 8211,
      "Qub": 8212,
      "çağır": 8213,
      "uv": 8214,
      "beş": 8215,
      "\n▁\"": 8216,
      "▁kim": 8217,
      "▁-": 8218,
      "əstəkar": 8219,
      "təyyar": 8220,
      "ölkənin▁": 8221,
      "Hey": 8222,
      "Sultan▁": 8223,
      "istan": 8224,
      "artır": 8225,
      "ment": 8226,
      "özünün▁": 8227,
      "öq": 8228,
      "sp": 8229,
      "31": 8230,
      "ökmdar": 8231,
      "indiki▁": 8232,
      "təcrüb": 8233,
      "ədəniyyət": 8234,
      "əç": 8235,
      "Prezidenti▁İlham▁Əliyevin▁": 8236,
      "▁bal": 8237,
      "▁at": 8238,
      "ında,▁": 8239,
      "▁de": 8240,
      "uz▁": 8241,
      "Məhəmməd▁": 8242,
      "▁səviyy": 8243,
      "el▁": 8244,
      "ür.▁": 8245,
      "▁iyul▁": 8246,
      "maraq": 8247,
      "məm": 8248,
      "itir": 8249,
      "sub": 8250,
      "Azərbaycan▁Dövlət▁": 8251,
      "liyini▁": 8252,
      "vardır.▁": 8253,
      "du▁və▁": 8254,
      "ərr": 8255,
      "kənddə▁": 8256,
      "▁oldu.▁": 8257,
      "6.": 8258,
      "şərəf": 8259,
      "ir.▁Bu▁": 8260,
      "içək": 8261,
      "//▁": 8262,
      "37": 8263,
      "cümlə": 8264,
      "Müs": 8265,
      "ılış": 8266,
      "ay▁Olimpiya▁Oyun": 8267,
      "”,▁": 8268,
      "İstinadlar\n\nXarici▁keçidlər▁\n▁": 8269,
      "-qərb": 8270,
      "epart": 8271,
      "mill": 8272,
      "th": 8273,
      "dü.▁": 8274,
      "▁yüks": 8275,
      "lu": 8276,
      "▁de▁": 8277,
      "memar": 8278,
      "aşa▁": 8279,
      "lər\n\n": 8280,
      ",▁N": 8281,
      "mişdir.▁B": 8282,
      "Rəs": 8283,
      "ması▁üçün▁": 8284,
      "anim": 8285,
      "▁düş": 8286,
      "45": 8287,
      "res": 8288,
      "sim": 8289,
      "rov": 8290,
      "möh": 8291,
      "EA": 8292,
      "müv": 8293,
      "▁siyas": 8294,
      "eksand": 8295,
      "emperatur": 8296,
      "он": 8297,
      "saxlan": 8298,
      "o▁cümlə": 8299,
      "▁olduğunu▁": 8300,
      "üçünc": 8301,
      "ləri▁\n": 8302,
      "ifadə▁": 8303,
      "1920": 8304,
      "uzaq": 8305,
      "▁əməliyyat": 8306,
      "(ölümündən▁sonra": 8307,
      "▁mükaf": 8308,
      ",▁T": 8309,
      "öldürül": 8310,
      "fəlsəf": 8311,
      "▁oğlu▁": 8312,
      "exan": 8313,
      "müəllim": 8314,
      "ı▁(": 8315,
      "işlən": 8316,
      "e▁(": 8317,
      "Bab": 8318,
      "arı": 8319,
      "▁hüquq": 8320,
      "Mərkəzi▁": 8321,
      "sa▁da,▁": 8322,
      "İstinadlar\n\nXarici▁keçidlər▁\n▁S": 8323,
      "ə▁bil": 8324,
      "mış▁və▁": 8325,
      "://": 8326,
      "məruz": 8327,
      "dəyişik": 8328,
      "mar": 8329,
      "adət": 8330,
      "nəzərdə▁": 8331,
      "pleks": 8332,
      "▁üzrə▁": 8333,
      "iyaziyyat": 8334,
      "lov": 8335,
      "İbrahim": 8336,
      "an▁ver": 8337,
      "onda▁": 8338,
      "▁yox": 8339,
      "▁Ç": 8340,
      "dini▁": 8341,
      "48": 8342,
      "anı": 8343,
      "cəmiyyət": 8344,
      "atında▁": 8345,
      "anadan▁olmuşdur.▁": 8346,
      "d.▁": 8347,
      "ств": 8348,
      "idman▁": 8349,
      "IV": 8350,
      "neft": 8351,
      "ско": 8352,
      "▁km": 8353,
      "inzibati▁ərazi▁": 8354,
      "ırlar.▁": 8355,
      "müxtəlif▁": 8356,
      "ger": 8357,
      "Har": 8358,
      "ko": 8359,
      "ölkə▁": 8360,
      "mübariz": 8361,
      "tən▁": 8362,
      "ondan▁": 8363,
      "dəyər": 8364,
      "ətdən▁": 8365,
      "9-cu▁il": 8366,
      "lığın▁": 8367,
      "vətəndaş": 8368,
      "da▁qeydə▁alın": 8369,
      "fərqlən": 8370,
      "Gül": 8371,
      "lin": 8372,
      "asim": 8373,
      "1991": 8374,
      "əbək": 8375,
      "ub.▁": 8376,
      "əməkdaş": 8377,
      "usu": 8378,
      "uluş": 8379,
      "ası▁ilə▁": 8380,
      "Lond": 8381,
      "Mis": 8382,
      "müşahidə▁": 8383,
      "eyx": 8384,
      "əif": 8385,
      "Təbr": 8386,
      "olmuşdur.\n\n": 8387,
      "\nNGC▁": 8388,
      "Üç": 8389,
      "undan▁sonra▁": 8390,
      "1.": 8391,
      "epartament": 8392,
      "0-cı▁il": 8393,
      "iqtisadiyyat": 8394,
      "Qəd": 8395,
      "ildi.▁": 8396,
      "adi▁": 8397,
      "İrəv": 8398,
      "Feder": 8399,
      "kam": 8400,
      "lilər": 8401,
      "urt": 8402,
      "Məmməd": 8403,
      "iyasına▁": 8404,
      "etir": 8405,
      "▁üzündə▁": 8406,
      "din▁": 8407,
      "məsini▁": 8408,
      "Qara▁": 8409,
      "ri": 8410,
      "klub": 8411,
      "namizəd": 8412,
      "qəz": 8413,
      "iyi▁": 8414,
      "əmə▁": 8415,
      "azad▁olunmasına▁": 8416,
      "▁–": 8417,
      "kər": 8418,
      "la,▁": 8419,
      "var.▁": 8420,
      "emokrat": 8421,
      "ündürlüy": 8422,
      "əldə▁et": 8423,
      "0-cı▁ildə▁": 8424,
      "kommun": 8425,
      "Ge": 8426,
      "olaraq,▁": 8427,
      "uzunluğu▁": 8428,
      "▁of": 8429,
      "e.": 8430,
      "Elmi▁": 8431,
      "estiv": 8432,
      "təp": 8433,
      "öhr": 8434,
      "orn": 8435,
      "ual": 8436,
      "kəşf▁edilmişdir.\n\n": 8437,
      "▁olunur.▁": 8438,
      "masını▁": 8439,
      "lər▁arasında▁": 8440,
      "ütb": 8441,
      "ələrdən▁": 8442,
      "Azərbaycan▁Prezidenti▁İlham▁Əliyevin▁": 8443,
      "lı,▁": 8444,
      "▁böyük▁": 8445,
      "uxt": 8446,
      "əbir": 8447,
      "asım": 8448,
      "şəhristanının▁kəndləri": 8449,
      "▁Yay▁Olimpiya▁Oyun": 8450,
      "Allah": 8451,
      "rast▁gəl": 8452,
      "həbs": 8453,
      "incəsən": 8454,
      "imt": 8455,
      "ataloqda▁qeydə▁alın": 8456,
      "Yeni▁Baş▁K": 8457,
      "Yeni▁Baş▁Kataloqda▁qeydə▁alın": 8458,
      "tub": 8459,
      "əktəb": 8460,
      "ıyev": 8461,
      "▁yaşında▁": 8462,
      "şəhristanı▁": 8463,
      "usunda▁": 8464,
      "dud": 8465,
      "arasındakı▁": 8466,
      "müəssis": 8467,
      "ması▁və▁": 8468,
      "▁hakim": 8469,
      "▁nəfər▁yaşayır": 8470,
      "istiqamətində▁yerləşir.▁": 8471,
      "dost": 8472,
      "isində▁": 8473,
      "Yaz": 8474,
      "daşıy": 8475,
      "EDS": 8476,
      "kənar": 8477,
      "▁mərkəz": 8478,
      "vəfat▁edən": 8479,
      "▁NGC▁": 8480,
      "ürcü▁istiqamətində▁yerləşir.▁": 8481,
      "izah": 8482,
      "ərazisinə▁daxil▁olan▁kənd.\n\n": 8483,
      "liyin▁": 8484,
      "▁edilir.▁": 8485,
      "ləğv": 8486,
      "ölçülü▁▁vasitəsilə▁": 8487,
      "Göy▁üzündə▁": 8488,
      ".▁▁▁tərəfindən▁": 8489,
      "əsi▁və▁": 8490,
      "eyni▁zamanda▁": 8491,
      "Vol": 8492,
      "anlar▁": 8493,
      "bölün": 8494,
      ".▁▁▁tərəfindən▁▁ildə▁": 8495,
      "-ci▁il▁tarixli▁Sərəncam": 8496,
      "anq": 8497,
      "dal": 8498,
      "yerləşir.\n\n": 8499,
      "Korey": 8500,
      "inat": 8501,
      "oyun▁": 8502,
      "▁sür": 8503,
      "mübarizə▁apar": 8504,
      "apit": 8505,
      "sıx": 8506,
      "mərhəl": 8507,
      "əndis": 8508,
      "Yaş": 8509,
      "\"K": 8510,
      "şəhəri▁": 8511,
      "manın▁": 8512,
      "di▁ki,▁": 8513,
      "Məs": 8514,
      "tərk▁": 8515,
      "şəxsi▁": 8516,
      "ida▁": 8517,
      "baş▁tutan▁": 8518,
      "unk": 8519,
      "Fər": 8520,
      "▁ter": 8521,
      "baxmayaraq,▁": 8522,
      "aq,▁": 8523,
      "çılar▁": 8524,
      "eyf": 8525,
      "Ərəb": 8526,
      "abrında▁": 8527,
      "ətində▁": 8528,
      "şəhərinin▁": 8529,
      "quruluş": 8530,
      "ure": 8531,
      "ayın▁": 8532,
      "oped": 8533,
      "məşq": 8534,
      "müddət▁": 8535,
      ":\n▁": 8536,
      "Abbas": 8537,
      "Ber": 8538,
      "9-": 8539,
      "Müharib": 8540,
      "ərək,▁": 8541,
      "etibarən▁": 8542,
      "nif": 8543,
      "ilik▁": 8544,
      "arası▁": 8545,
      "▁yax": 8546,
      "respublik": 8547,
      "kol": 8548,
      "us▁": 8549,
      "com": 8550,
      "ур": 8551,
      "ədək▁": 8552,
      "əqliyyat": 8553,
      "usif": 8554,
      "məb": 8555,
      "edr": 8556,
      "iyalı▁": 8557,
      "etmə▁": 8558,
      "2001": 8559,
      "i)▁": 8560,
      "qısametrajlı▁": 8561,
      "xey": 8562,
      "dıqdan▁sonra▁": 8563,
      "▁və▁b": 8564,
      "İstinadlar\n\nXarici▁keçidlər▁\n▁SEDS": 8565,
      "xarakter": 8566,
      "-cu▁il": 8567,
      "dı.▁B": 8568,
      "daha▁sonra▁": 8569,
      "||": 8570,
      "6-": 8571,
      "formalaş": 8572,
      "əbh": 8573,
      "dir,▁": 8574,
      "Top": 8575,
      "▁Part": 8576,
      "yayım": 8577,
      "ай": 8578,
      "dəyişdir": 8579,
      "Çin▁": 8580,
      "a▁b": 8581,
      ":▁M": 8582,
      "kəşf▁edilmişdir.\n\nİstinadlar\n\nXarici▁keçidlər▁\n▁SEDS": 8583,
      "alic": 8584,
      "Şək": 8585,
      "həll": 8586,
      "fiq": 8587,
      "əşdir": 8588,
      "Polş": 8589,
      "meydana▁": 8590,
      "İnstitutunun▁": 8591,
      "ahm": 8592,
      "▁ser": 8593,
      "▁met": 8594,
      "1998": 8595,
      "qap": 8596,
      "Paris": 8597,
      "pər": 8598,
      "aparılan▁": 8599,
      "edə▁": 8600,
      "оп": 8601,
      "си": 8602,
      "əmr": 8603,
      "musiqi▁": 8604,
      "AM": 8605,
      "ura▁": 8606,
      "formasiya▁": 8607,
      "a\n\n": 8608,
      "▁nəfər▁yaşayır▁(": 8609,
      "qorun": 8610,
      "jurnalist": 8611,
      "▁iş": 8612,
      "abad": 8613,
      "hy": 8614,
      "kömək▁": 8615,
      "hələ▁": 8616,
      "Ver": 8617,
      "o▁cümlədən▁": 8618,
      "ması,▁": 8619,
      "III▁əsr": 8620,
      "köçür": 8621,
      "ünü▁": 8622,
      "əlif": 8623,
      "içər": 8624,
      "teatr": 8625,
      "oqrafiya▁": 8626,
      "▁min": 8627,
      "▁siyah": 8628,
      "ich": 8629,
      "ümüş": 8630,
      "ictimai▁": 8631,
      "Fil": 8632,
      "kov": 8633,
      "▁nətic": 8634,
      "azad▁edilməsi▁": 8635,
      "its": 8636,
      "ıdır": 8637,
      "idman": 8638,
      "enc": 8639,
      "istehs": 8640,
      "qəl": 8641,
      "əyi▁": 8642,
      "azad▁olunmasına▁görə\"▁medalı▁": 8643,
      "kəndində▁": 8644,
      "2004": 8645,
      "imiz": 8646,
      "ла": 8647,
      ",▁K": 8648,
      "İnc": 8649,
      "artist": 8650,
      "Ax": 8651,
      "adı▁ilə▁": 8652,
      "atik": 8653,
      "şaq": 8654,
      "i▁S": 8655,
      "dül": 8656,
      "təbii▁": 8657,
      "işləmiş": 8658,
      "ailə▁": 8659,
      "anında▁": 8660,
      "-ci▁il▁tarixli▁Sərəncamına▁əsasən▁": 8661,
      "tip": 8662,
      "qısa▁": 8663,
      "şöb": 8664,
      "1,": 8665,
      "a\n": 8666,
      "sol": 8667,
      "lərindən▁bir": 8668,
      "liyinə▁": 8669,
      "bəh": 8670,
      "Onların▁": 8671,
      "bu": 8672,
      "rəhbərlik": 8673,
      "ə▁ver": 8674,
      "Onlar▁": 8675,
      "▁mövs": 8676,
      "orden": 8677,
      ")▁-▁": 8678,
      "vəs": 8679,
      "Birləşmiş": 8680,
      "meş": 8681,
      "mühit": 8682,
      "sahil": 8683,
      "yağ": 8684,
      "taxt": 8685,
      "təşkil▁edir.▁": 8686,
      "zəif": 8687,
      "Plan": 8688,
      "ann": 8689,
      "çuları\n": 8690,
      "▁mövz": 8691,
      "Mal": 8692,
      "rid": 8693,
      "kür": 8694,
      "Yaponiya▁": 8695,
      "▁dey": 8696,
      "ərazisinə▁daxil▁olan▁kənd.\n\nƏhalisi▁\n": 8697,
      "müstəqil": 8698,
      "müdir": 8699,
      "əqq": 8700,
      "ası▁\n": 8701,
      "acağ": 8702,
      "▁()▁—▁▁aləminin▁▁dəstəsinin▁": 8703,
      "Əhməd": 8704,
      "ye": 8705,
      "layış": 8706,
      "bat": 8707,
      "axtar": 8708,
      "cin": 8709,
      "isk": 8710,
      "ilmiş▁": 8711,
      "sənay": 8712,
      "rayon▁": 8713,
      "Daha▁sonra▁": 8714,
      "eputat": 8715,
      "ədəd": 8716,
      "ektiv": 8717,
      "ifa▁": 8718,
      "Birinci▁": 8719,
      "nar": 8720,
      "ani▁": 8721,
      "▁bil": 8722,
      "bəti▁": 8723,
      "▁qədər▁": 8724,
      "erməni▁": 8725,
      "▁qız": 8726,
      "insanlar": 8727,
      "qadın▁": 8728,
      "birgə▁": 8729,
      "ov▁—▁": 8730,
      "ı\"": 8731,
      "bəx": 8732,
      "peş": 8733,
      "mət▁": 8734,
      "əmir": 8735,
      "Mon": 8736,
      "Afr": 8737,
      "təhlükəsiz": 8738,
      "lan▁": 8739,
      "uh": 8740,
      "ternet": 8741,
      ")▁—": 8742,
      "185": 8743,
      "▁keçir": 8744,
      ".▁P": 8745,
      "ürüş": 8746,
      "təhsilini▁": 8747,
      "tayf": 8748,
      "mit": 8749,
      "ətdə▁": 8750,
      ",▁h": 8751,
      "3–": 8752,
      "ре": 8753,
      "ang": 8754,
      "böyü": 8755,
      "из": 8756,
      "htt": 8757,
      ",▁198": 8758,
      "əmək▁": 8759,
      "Ev": 8760,
      "erin▁": 8761,
      "Qarabağ▁müharibəsi▁": 8762,
      "ron▁": 8763,
      "ılmış▁": 8764,
      "qarış": 8765,
      "si▁": 8766,
      "mövz": 8767,
      "İmper": 8768,
      ",▁Yeni▁Baş▁Kataloqda▁qeydə▁alın": 8769,
      "nisbət": 8770,
      "м▁": 8771,
      "Sə": 8772,
      "Sur": 8773,
      "▁aprel▁": 8774,
      "ist▁": 8775,
      "ate": 8776,
      "Qul": 8777,
      "mədən▁": 8778,
      "ləq": 8779,
      "məscid": 8780,
      "bir▁çox▁": 8781,
      "Texn": 8782,
      "pey": 8783,
      "eləcə▁də▁": 8784,
      "ən▁yaxşı▁": 8785,
      "Kal": 8786,
      "1997": 8787,
      "ündən▁": 8788,
      ".▁R": 8789,
      "ərkən▁": 8790,
      "obyekt": 8791,
      "əsi▁(": 8792,
      "əkkəb": 8793,
      "▁Ağ": 8794,
      "mamış": 8795,
      "başq": 8796,
      "ub.\n\n": 8797,
      "▁isə▁": 8798,
      "dilində▁": 8799,
      "müqavil": 8800,
      "akült": 8801,
      "maya▁": 8802,
      "▁düny": 8803,
      "çoxlu▁": 8804,
      "qər": 8805,
      "dəc": 8806,
      "ıqları▁": 8807,
      "mühaf": 8808,
      "baş▁": 8809,
      "osial▁": 8810,
      "he": 8811,
      "▁tel": 8812,
      "oç": 8813,
      "-cü": 8814,
      "diqqət": 8815,
      "onlara▁": 8816,
      "üzərinə▁": 8817,
      "bah": 8818,
      "ак": 8819,
      "zir": 8820,
      "daha▁çox": 8821,
      "-in▁": 8822,
      "ayış": 8823,
      "bun": 8824,
      "mümkün▁": 8825,
      "bərabər": 8826,
      "ü▁ilə▁": 8827,
      "kütl": 8828,
      ".▁C": 8829,
      "məktub": 8830,
      "qələb": 8831,
      "həqiq": 8832,
      "▁rol": 8833,
      "Gürcüstan▁": 8834,
      "kunlaş": 8835,
      "Rusiyanın▁": 8836,
      "ahiyyət": 8837,
      "ənz": 8838,
      "▁rayonunun▁": 8839,
      "об": 8840,
      "Təd": 8841,
      "elə▁ki,▁": 8842,
      "-P": 8843,
      "ə▁b": 8844,
      "Elmlər▁": 8845,
      "Le": 8846,
      "ada,▁": 8847,
      "İqtisadiyyat": 8848,
      "old": 8849,
      "aqo": 8850,
      "ilə▁təltif▁edildi.\n\n": 8851,
      "məli▁": 8852,
      "məsindən▁": 8853,
      "▁ayında▁": 8854,
      "vasitəsilə▁": 8855,
      "tərcüm": 8856,
      "xətt": 8857,
      "Kommun": 8858,
      "▁sahil": 8859,
      ".7": 8860,
      "34": 8861,
      "ərin▁": 8862,
      "▁sax": 8863,
      "1995": 8864,
      "İdar": 8865,
      "eyh": 8866,
      ",▁D": 8867,
      "yön": 8868,
      "Val": 8869,
      "edilən▁": 8870,
      "nümayiş▁etdir": 8871,
      "adlandırıl": 8872,
      "▁tipli▁.▁▁▁tərəfindən▁▁ildə▁": 8873,
      "fi▁": 8874,
      "iylə▁": 8875,
      "-ci▁il▁": 8876,
      "mərkəzi▁": 8877,
      "nail": 8878,
      "cəlb": 8879,
      "Müqəddəs": 8880,
      "a▁görə▁": 8881,
      "xadim": 8882,
      "unda": 8883,
      "asiyalar": 8884,
      "y▁of": 8885,
      "idro": 8886,
      "cü": 8887,
      "▁adlı▁": 8888,
      "ubern": 8889,
      "əp": 8890,
      "üley": 8891,
      "landiy": 8892,
      "mənb": 8893,
      "Nik": 8894,
      "tib": 8895,
      "▁tələb": 8896,
      "dan,▁": 8897,
      "düşün": 8898,
      "Xoc": 8899,
      "əşkil": 8900,
      ";▁)▁—▁": 8901,
      "io": 8902,
      "dılar.▁": 8903,
      "person": 8904,
      "rit": 8905,
      "bütövl": 8906,
      "ation▁": 8907,
      "real": 8908,
      "uda▁": 8909,
      "stitus": 8910,
      "Abdul": 8911,
      "istik": 8912,
      "▁vaxt": 8913,
      "Qərb": 8914,
      "həl": 8915,
      "Sam": 8916,
      "atası▁": 8917,
      "▁dilində▁": 8918,
      "ətə▁": 8919,
      "ек": 8920,
      "edilməsi▁": 8921,
      "artıq▁": 8922,
      "ilmişdir.\n\n": 8923,
      "▁tam": 8924,
      "cıl": 8925,
      "şəhristanı▁ərazisinə▁daxil▁olan▁kənd.\n\nƏhalisi▁\n": 8926,
      "inan": 8927,
      "org": 8928,
      "yerləşdir": 8929,
      "fəz": 8930,
      "çilik": 8931,
      "xəbər": 8932,
      "yarış": 8933,
      "irlər.▁": 8934,
      "ümhur": 8935,
      "192": 8936,
      "▁bağ": 8937,
      "bək": 8938,
      "qalib": 8939,
      "▁qalaktik": 8940,
      "Cəb": 8941,
      "a\"▁": 8942,
      "şəhərin▁": 8943,
      "▁qoy": 8944,
      "▁etmək▁üçün▁": 8945,
      "eksandr": 8946,
      "əndəsi▁": 8947,
      "enz": 8948,
      "▁qab": 8949,
      "qəsəb": 8950,
      "And": 8951,
      "etmək▁": 8952,
      "Meh": 8953,
      "etik": 8954,
      "▁J": 8955,
      "an▁(": 8956,
      "qəhrəm": 8957,
      "▁vəzif": 8958,
      ")▁(qısametrajlı▁": 8959,
      "ır.▁Bu▁": 8960,
      "saray": 8961,
      "ton▁": 8962,
      "olunu▁": 8963,
      "▁ed": 8964,
      "olduq": 8965,
      "Bol": 8966,
      "səviyy": 8967,
      "ı\n": 8968,
      "Tel": 8969,
      "A.": 8970,
      "çar": 8971,
      "şeir": 8972,
      "orada▁": 8973,
      "nəzarət": 8974,
      "O▁": 8975,
      "dığını▁": 8976,
      "yəni▁": 8977,
      "las": 8978,
      "▁bur": 8979,
      "qov": 8980,
      "▁mər": 8981,
      ".▁\"": 8982,
      "enn": 8983,
      "püt": 8984,
      "0-": 8985,
      "qızı▁": 8986,
      "▁qan": 8987,
      "ləri▁\n▁": 8988,
      "liklə▁": 8989,
      "radi": 8990,
      "▁kar": 8991,
      "ətrafında▁": 8992,
      "əkim": 8993,
      "muzey": 8994,
      "▁davam": 8995,
      "Ul": 8996,
      "Ram": 8997,
      "kur": 8998,
      "arət▁": 8999,
      "eydər▁": 9000,
      "əlim": 9001,
      "er,▁": 9002,
      "▁olunmuşdur.▁": 9003,
      "kəşf▁edilmişdir.\n\nİstinadlar\n\nXarici▁keçidlər▁\n▁SEDS\n▁\n\n": 9004,
      "obraz": 9005,
      "yanında▁": 9006,
      "ри": 9007,
      "iyul": 9008,
      "Almaniya▁": 9009,
      "idey": 9010,
      "ai▁": 9011,
      "▁qəbul": 9012,
      "tərkibində▁": 9013,
      "ikloped": 9014,
      "Ol": 9015,
      "ая▁": 9016,
      "istanın▁": 9017,
      "asılı▁": 9018,
      "çayının▁": 9019,
      "kimy": 9020,
      "daxili▁": 9021,
      "-tez": 9022,
      "dı,▁": 9023,
      "\n\nXarici▁keçidlər▁": 9024,
      "▁Ak": 9025,
      "ret": 9026,
      "üslub": 9027,
      "biz": 9028,
      "dir.▁Bu▁": 9029,
      "məsi▁ilə▁": 9030,
      "iyanı▁": 9031,
      "Məclis": 9032,
      "▁qüvv": 9033,
      "uxtar▁": 9034,
      "▁arasında▁": 9035,
      "larına▁qat": 9036,
      "ilir.\n\n": 9037,
      "akin": 9038,
      "xüsusilə▁": 9039,
      "ard▁": 9040,
      "onlar": 9041,
      "▁qoş": 9042,
      "ros": 9043,
      "osi": 9044,
      "39": 9045,
      "zadə": 9046,
      "Ölk": 9047,
      "i▁kimi▁": 9048,
      "oke": 9049,
      "Əsər": 9050,
      "koll": 9051,
      "ölümündən▁sonra▁\"": 9052,
      "orpaq": 9053,
      "özünü▁": 9054,
      "):▁": 9055,
      "Bel": 9056,
      "ayının▁": 9057,
      "səy": 9058,
      "salın": 9059,
      ".000": 9060,
      "oğaz": 9061,
      "dərs": 9062,
      "iyar": 9063,
      "irin▁": 9064,
      "istə": 9065,
      "iş▁": 9066,
      "▁()▁—▁▁aləminin▁▁dəstəsinin▁▁fəsiləsinin▁▁cinsinə▁aid▁bitki▁növü.\n\n": 9067,
      "Xüsus": 9068,
      "mart": 9069,
      "müşdür.▁": 9070,
      "qəzet": 9071,
      "ə▁qədər": 9072,
      "eviziya▁": 9073,
      "Azərbaycanlı▁": 9074,
      "əvvəllərində▁": 9075,
      "ətlə▁": 9076,
      "▁səbəb": 9077,
      "ordusu▁": 9078,
      "yüksəl": 9079,
      "şərt": 9080,
      "imperator": 9081,
      "a)▁": 9082,
      "icaz": 9083,
      "dir▁və▁": 9084,
      "\n▁C": 9085,
      "filmləri\n": 9086,
      "İttifaq": 9087,
      "ətinə▁": 9088,
      "pon": 9089,
      "ald": 9090,
      "ələri": 9091,
      "ek▁": 9092,
      "haqq": 9093,
      "ata▁": 9094,
      "müasir": 9095,
      "müav": 9096,
      "evir": 9097,
      "aktris": 9098,
      "kəmli▁": 9099,
      "▁yarat": 9100,
      "var.\n\n": 9101,
      "müğ": 9102,
      "məyən▁": 9103,
      "liyi▁və▁": 9104,
      "rayıl": 9105,
      "fikr": 9106,
      "ə▁aid": 9107,
      "əniz": 9108,
      "Ny": 9109,
      "alman▁": 9110,
      "ib,▁": 9111,
      "2022": 9112,
      "əmələ▁gəl": 9113,
      "bel": 9114,
      "от": 9115,
      ".▁Bir": 9116,
      "tənqid": 9117,
      "nəzərdə▁tutul": 9118,
      "iyyətlə▁": 9119,
      "qoşul": 9120,
      "cür": 9121,
      "ısında▁": 9122,
      "material": 9123,
      "Rob": 9124,
      "alarına▁": 9125,
      "Nad": 9126,
      "viz": 9127,
      "döyüş▁əməliyyat": 9128,
      "yalnız▁": 9129,
      "-M": 9130,
      "Ail": 9131,
      "Daş": 9132,
      "mis": 9133,
      "64": 9134,
      "insip": 9135,
      "qarşısında▁": 9136,
      "6▁": 9137,
      "avaş": 9138,
      "▁sm▁(": 9139,
      ".▁С": 9140,
      "ани": 9141,
      "▁sahib": 9142,
      "tam▁": 9143,
      "eganə▁": 9144,
      "osm": 9145,
      "dəfn▁olun": 9146,
      "ətin": 9147,
      "Per": 9148,
      "▁yarad": 9149,
      "oyunca▁": 9150,
      "i▁sür": 9151,
      "Sən": 9152,
      "atəş": 9153,
      "ok▁": 9154,
      "ə).\n\nİstinadlar▁\n\n": 9155,
      "▁avqust▁": 9156,
      "Hər▁": 9157,
      "metr": 9158,
      "final": 9159,
      "asitə": 9160,
      "Xəz": 9161,
      "Universitetində▁": 9162,
      "amil": 9163,
      "▁oldu": 9164,
      "lama▁": 9165,
      "mağ": 9166,
      "yardım": 9167,
      "Mur": 9168,
      "başladı.▁": 9169,
      ".▁Bakı:▁": 9170,
      "Təbi": 9171,
      "ibarətdir.▁": 9172,
      ")▁ölçülü▁▁vasitəsilə▁": 9173,
      "laure": 9174,
      "dünyanın▁": 9175,
      "tör": 9176,
      "▁edib": 9177,
      "dünyaya▁": 9178,
      "qoşun": 9179,
      "\"Q": 9180,
      "nin▁": 9181,
      "zon": 9182,
      "lər▁üçün▁": 9183,
      "ulyar": 9184,
      "sənət": 9185,
      "Bar": 9186,
      "yaxınlığında▁": 9187,
      "▁saytında": 9188,
      "müharibəsi▁": 9189,
      "mış▁qalaktik": 9190,
      "▁Kom": 9191,
      "ölüm": 9192,
      "əvvəlki▁": 9193,
      "fransız": 9194,
      "alç": 9195,
      "akadem": 9196,
      "▁kəs": 9197,
      "vəzifəsində▁": 9198,
      "Təbriz": 9199,
      "it▁": 9200,
      "Ukrayn": 9201,
      "xaric": 9202,
      "azərbaycanlı": 9203,
      "noy": 9204,
      "99": 9205,
      "Sey": 9206,
      "Qədim": 9207,
      "lar▁üçün▁": 9208,
      "▁qol": 9209,
      "andir": 9210,
      "andan▁": 9211,
      "ılmışdır": 9212,
      ".:▁": 9213,
      "alıq": 9214,
      ".▁Bakı,▁": 9215,
      "avtomobil": 9216,
      "Çox": 9217,
      "alan▁": 9218,
      "asiyasının▁": 9219,
      "açı▁": 9220,
      "ləh": 9221,
      "-y": 9222,
      ",▁№": 9223,
      "adığı▁": 9224,
      "▁yen": 9225,
      "struktur": 9226,
      "Ancaq▁": 9227,
      "olmuşdur": 9228,
      "0,": 9229,
      "aqda▁": 9230,
      "erey": 9231,
      "anların▁": 9232,
      "etdiyi▁": 9233,
      "nümayəndə": 9234,
      "tibb": 9235,
      "mm": 9236,
      "▁nəzər": 9237,
      "olur.▁": 9238,
      "фи": 9239,
      "Hal": 9240,
      "II▁əsr": 9241,
      "alarda▁": 9242,
      "təmiz": 9243,
      "mək▁olar▁ki,▁": 9244,
      "İz": 9245,
      "təsis": 9246,
      "Yusif": 9247,
      "Her": 9248,
      "Qəhrəm": 9249,
      "32": 9250,
      "t▁L": 9251,
      "▁çək": 9252,
      "mühəndis": 9253,
      "Elmlər▁Akadem": 9254,
      "e▁of": 9255,
      "bəzən▁": 9256,
      "Məhəmməd": 9257,
      "İtaliya▁": 9258,
      "180": 9259,
      "yad": 9260,
      "bəhs": 9261,
      "kral": 9262,
      "unksiy": 9263,
      "akültəs": 9264,
      "ask": 9265,
      "atar": 9266,
      "personaj": 9267,
      "pil": 9268,
      "ometr": 9269,
      "müt": 9270,
      "əbb": 9271,
      "▁dövründə▁": 9272,
      "manı▁": 9273,
      "kənd▁": 9274,
      "xana▁": 9275,
      "issert": 9276,
      "▁mat": 9277,
      "liyində▁": 9278,
      "Mədəniyyət": 9279,
      "▁I": 9280,
      "de▁": 9281,
      "fon": 9282,
      "azırda▁": 9283,
      "inşa▁edil": 9284,
      "Liq": 9285,
      "65": 9286,
      "etdi.▁": 9287,
      "▁nömr": 9288,
      "ciddi▁": 9289,
      "xalç": 9290,
      "orf": 9291,
      "Kənddə▁": 9292,
      "çünki▁": 9293,
      "şar": 9294,
      "ası▁və▁": 9295,
      "Ukrayna▁": 9296,
      "184": 9297,
      "▁Ali▁": 9298,
      "coğraf": 9299,
      "mer": 9300,
      "əzm": 9301,
      "▁yazı": 9302,
      "aket": 9303,
      "\".▁": 9304,
      "həd": 9305,
      "ou": 9306,
      "imkan▁ver": 9307,
      "let": 9308,
      "▁tik": 9309,
      "Ed": 9310,
      "Ser": 9311,
      "məsinin▁": 9312,
      "İns": 9313,
      "əhl": 9314,
      "ünü": 9315,
      "1988": 9316,
      "baş▁verən▁": 9317,
      "adüf": 9318,
      "2003": 9319,
      "lob": 9320,
      "alarını▁": 9321,
      "miqdar": 9322,
      "psix": 9323,
      "ılıb": 9324,
      "idi,▁": 9325,
      "xrist": 9326,
      "▁W": 9327,
      "a▁M": 9328,
      "amb": 9329,
      "başa▁vur": 9330,
      "ilir": 9331,
      "İb": 9332,
      "məruz▁qal": 9333,
      "əsasən,▁": 9334,
      "qiymətləndir": 9335,
      "\n▁D": 9336,
      "Kim": 9337,
      "ский▁": 9338,
      "ат": 9339,
      "bir▁hissəsi▁": 9340,
      "tə▁": 9341,
      "Azərbaycan▁ostanının▁": 9342,
      "za": 9343,
      "▁bütün▁": 9344,
      "▁Nazir": 9345,
      "arif": 9346,
      "müalic": 9347,
      "\"L": 9348,
      "lar▁(": 9349,
      "qış": 9350,
      "▁düy": 9351,
      "tamamilə▁": 9352,
      "vari": 9353,
      ".)▁": 9354,
      "layev": 9355,
      "Yen": 9356,
      "Ən": 9357,
      "yanaşı,▁": 9358,
      "kils": 9359,
      "Tal": 9360,
      "Hacı▁": 9361,
      "Qan": 9362,
      "aq▁üçün▁": 9363,
      "ədi▁": 9364,
      "xil": 9365,
      "mağı▁": 9366,
      "əvvəl▁": 9367,
      "Roma▁": 9368,
      "vac": 9369,
      "olunan▁": 9370,
      "ain": 9371,
      "▁olaraq▁": 9372,
      "eymur": 9373,
      "Tər": 9374,
      "ilməsinə▁": 9375,
      "kan": 9376,
      "üçün": 9377,
      "▁As": 9378,
      "baxım": 9379,
      "masın": 9380,
      "\"H": 9381,
      "evlən": 9382,
      "75": 9383,
      "ban▁": 9384,
      "sonunda▁": 9385,
      "üyünün▁": 9386,
      "bacar": 9387,
      "Kiç": 9388,
      "idarə": 9389,
      "söy": 9390,
      "ton": 9391,
      "lar\n\n": 9392,
      "larından▁bir": 9393,
      "Bakı,▁": 9394,
      "qabil": 9395,
      "sə▁də,▁": 9396,
      "uğrunda": 9397,
      "Britaniya▁": 9398,
      "Eyni▁": 9399,
      ".06.": 9400,
      ") —▁": 9401,
      "▁Te": 9402,
      ",▁C": 9403,
      "Növ": 9404,
      "a.▁": 9405,
      "Sovetinin▁": 9406,
      "xəstəlik": 9407,
      "nit": 9408,
      "udiy": 9409,
      "▁in": 9410,
      "məskunlaş": 9411,
      "çü": 9412,
      "▁şəkildə▁": 9413,
      "Xor": 9414,
      "lığa▁": 9415,
      ")▁(qısametrajlı▁sənədli▁film": 9416,
      "şü": 9417,
      "uya▁": 9418,
      "abor": 9419,
      "asp": 9420,
      "icr": 9421,
      "cəhətdən▁": 9422,
      "2-ci▁": 9423,
      "maş": 9424,
      "1919": 9425,
      "müraci": 9426,
      "ал": 9427,
      "/▁": 9428,
      "oxun": 9429,
      "Sonr": 9430,
      "lər▁\n": 9431,
      "33": 9432,
      "i▁sah": 9433,
      "Komitəsinin▁": 9434,
      "▁bin": 9435,
      "dəyişiklik": 9436,
      "-S": 9437,
      "geniş▁": 9438,
      "Cəbrayıl": 9439,
      "oldu.▁": 9440,
      "le▁": 9441,
      "Port": 9442,
      "təkr": 9443,
      "ilərək▁": 9444,
      "aat▁": 9445,
      "diyinə▁görə▁": 9446,
      "Hüseyn▁": 9447,
      "İncəsən": 9448,
      "uncu▁": 9449,
      "nazir": 9450,
      "▁qədər": 9451,
      "müharibə▁": 9452,
      "ultan": 9453,
      "dikləri▁": 9454,
      "ancaq▁": 9455,
      "agir": 9456,
      "sar": 9457,
      "işğaldan▁": 9458,
      "tədris": 9459,
      "hekay": 9460,
      "ly": 9461,
      "aşağıdakı▁": 9462,
      "ını▁al": 9463,
      "çiçək": 9464,
      "şirkət": 9465,
      "▁edə▁": 9466,
      "Həsən▁": 9467,
      "avar": 9468,
      "▁hökum": 9469,
      "Mahn": 9470,
      "hətta▁": 9471,
      "ори": 9472,
      "İd": 9473,
      "ıya▁alın": 9474,
      "eləliklə,▁": 9475,
      "sü": 9476,
      "▁ki,▁bu▁": 9477,
      "Man": 9478,
      ".▁М": 9479,
      "atlar▁": 9480,
      "Nor": 9481,
      "idi▁və▁": 9482,
      "amma▁": 9483,
      "Gəncə▁": 9484,
      "eksiy": 9485,
      "inal▁": 9486,
      "azərbaycanlı▁": 9487,
      "fə": 9488,
      "▁idi.▁": 9489,
      "ıstanın▁": 9490,
      "əməkdar▁": 9491,
      "Azərbaycan▁Silahlı▁Qüvvələrinin▁": 9492,
      "tih": 9493,
      "oynam": 9494,
      "vad": 9495,
      "malı▁": 9496,
      "▁heyvan▁": 9497,
      "məqsədilə▁": 9498,
      "▁baz": 9499,
      "olunmuş": 9500,
      "ayrı▁": 9501,
      "ığını▁": 9502,
      "▁tur": 9503,
      "məhdud": 9504,
      "alarından▁": 9505,
      "in▁(": 9506,
      "üfuz": 9507,
      ".▁Q": 9508,
      "fikir": 9509,
      "iddia▁": 9510,
      "Vətən▁uğrunda": 9511,
      "ə-": 9512,
      "başlamışdır.▁": 9513,
      "sor": 9514,
      "Teatr": 9515,
      "üç▁": 9516,
      "ıntı": 9517,
      "BM": 9518,
      "ılır.\n\n": 9519,
      "xalq▁": 9520,
      "deyil,▁": 9521,
      "temperatur": 9522,
      "qardaş": 9523,
      "▁▁▁▁▁▁▁▁▁▁▁▁▁▁▁▁": 9524,
      "▁rəng": 9525,
      "Zəng": 9526,
      "▁Azərbaycan▁": 9527,
      "özünə▁": 9528,
      "fot": 9529,
      "AT": 9530,
      "Cəl": 9531,
      "Nətic": 9532,
      "imn": 9533,
      "▁The▁": 9534,
      "döyüş▁əməliyyatlarına▁qat": 9535,
      "li▁və▁": 9536,
      "övz": 9537,
      "dörd": 9538,
      ",▁Yeni▁Baş▁Kataloqda▁qeydə▁alınmış▁qalaktik": 9539,
      "möhkəm": 9540,
      "edir.\n\n": 9541,
      "s,▁": 9542,
      "aqoji▁": 9543,
      "ius": 9544,
      "İngilis": 9545,
      "yanaşı▁": 9546,
      "Kol": 9547,
      "Qırmızı▁": 9548,
      "lar▁tərəfindən▁": 9549,
      "um▁": 9550,
      "dı▁": 9551,
      "mədəni▁": 9552,
      "əsindəki▁": 9553,
      "Şər": 9554,
      ".▁F": 9555,
      "▁hərbi▁": 9556,
      "Həsən": 9557,
      "▁sinf": 9558,
      "300": 9559,
      "əml": 9560,
      "ələndir": 9561,
      ".▁V": 9562,
      "\n▁T": 9563,
      "Əv": 9564,
      "2.": 9565,
      "▁edirdi.▁": 9566,
      "▁yarım": 9567,
      "▁hansı▁": 9568,
      "uper": 9569,
      "üstünlük▁": 9570,
      "1950": 9571,
      "bür": 9572,
      "anın": 9573,
      "əks▁etdir": 9574,
      "əmə": 9575,
      "▁şəxs": 9576,
      "götürül": 9577,
      "insanların▁": 9578,
      "adır.▁Göy▁üzündə▁": 9579,
      "AR": 9580,
      "Filmin▁": 9581,
      "p://": 9582,
      "▁hadis": 9583,
      "Ok": 9584,
      "▁etmək": 9585,
      "Mak": 9586,
      "nes": 9587,
      "ES": 9588,
      "hərb": 9589,
      "küç": 9590,
      "sonrakı▁": 9591,
      "kons": 9592,
      "cəz": 9593,
      "nisbətən▁": 9594,
      ")\n▁▁(": 9595,
      "i▁seç": 9596,
      "Karyer": 9597,
      "idi▁": 9598,
      "ry": 9599,
      "müz": 9600,
      "ısa▁": 9601,
      "general": 9602,
      "ündürlüyü▁": 9603,
      "nümun": 9604,
      "dilər.\n\n": 9605,
      "kar▁": 9606,
      "ster": 9607,
      "İrəvan▁": 9608,
      "tanış": 9609,
      ",▁p": 9610,
      "Əz": 9611,
      "к▁": 9612,
      "alında▁": 9613,
      "Con": 9614,
      "mada▁": 9615,
      ".▁Burada▁": 9616,
      "▁nümay": 9617,
      "riyaziyyat": 9618,
      ").\n▁": 9619,
      "ayı▁": 9620,
      "Bi": 9621,
      "ого▁": 9622,
      "Nizam": 9623,
      "mövs": 9624,
      "▁səs": 9625,
      ",▁Yeni▁Baş▁Kataloqda▁qeydə▁alınmış▁qalaktikadır.▁Göy▁üzündə▁": 9626,
      "aur": 9627,
      "ardı": 9628,
      "üsyan": 9629,
      "s▁of": 9630,
      "ağıl": 9631,
      "\"F": 9632,
      "ama▁": 9633,
      "landiya▁": 9634,
      "çıxan▁": 9635,
      "ərazi▁bütövl": 9636,
      "6–": 9637,
      "rik▁": 9638,
      "xeyli▁": 9639,
      "rast▁gəlin": 9640,
      "500": 9641,
      "Şeyx": 9642,
      "▁tapşır": 9643,
      "1930": 9644,
      "Biz": 9645,
      "əkil": 9646,
      "oğul": 9647,
      "▁dol": 9648,
      "ğəm": 9649,
      "ayda▁": 9650,
      "▁nəşriyyat": 9651,
      "itar": 9652,
      "▁mon": 9653,
      "\nT": 9654,
      "kal": 9655,
      "tid": 9656,
      "Vətən▁uğrunda\"▁medalı▁": 9657,
      "sosial": 9658,
      "gümüş": 9659,
      "▁etdi.\n\n": 9660,
      "başa▁çat": 9661,
      "iqlim": 9662,
      "▁Kon": 9663,
      "elmləri▁doktor": 9664,
      "boş": 9665,
      "ts": 9666,
      "▁əsər": 9667,
      "əyalət": 9668,
      "ərçiv": 9669,
      "▁U": 9670,
      "Lən": 9671,
      "Mükaf": 9672,
      "за": 9673,
      "Yazı": 9674,
      "niş": 9675,
      "\n\nS": 9676,
      "▁kö": 9677,
      "tamaş": 9678,
      "mənş": 9679,
      "iyadan▁": 9680,
      "▁oyun": 9681,
      "lıq▁və▁": 9682,
      "güclü": 9683,
      "əhali▁": 9684,
      "anda,▁": 9685,
      "lar▁arasında▁": 9686,
      "на▁": 9687,
      "gəlir": 9688,
      "lərinə▁görə▁": 9689,
      "ımız": 9690,
      "9-cu▁ilin▁": 9691,
      "gent": 9692,
      "pop": 9693,
      "arxe": 9694,
      "Mirzə▁": 9695,
      "etmişdir.▁": 9696,
      "məsi,▁": 9697,
      "yazır": 9698,
      "müşdür.\n\n": 9699,
      "istehsalı▁": 9700,
      "▁edildi.▁": 9701,
      "başlayır.▁": 9702,
      "olit": 9703,
      "ılaraq▁": 9704,
      "ideo": 9705,
      "fekt": 9706,
      "sur": 9707,
      "göy": 9708,
      "ağırış": 9709,
      "təbəq": 9710,
      "▁və▁s.▁": 9711,
      "ə▁ilə▁": 9712,
      "çayı▁": 9713,
      "etn": 9714,
      "Təşkil": 9715,
      "ətini▁": 9716,
      "Tədqiq": 9717,
      "anları▁": 9718,
      "liyi▁ilə▁": 9719,
      "igid": 9720,
      "avod": 9721,
      "aqları▁": 9722,
      "Üz": 9723,
      "Əhməd▁": 9724,
      ".12.2020)▁—▁\"": 9725,
      "▁məlumatına▁görə▁": 9726,
      "ixtisas": 9727,
      "mülk": 9728,
      "sın": 9729,
      "▁texn": 9730,
      "Zaq": 9731,
      "icilər": 9732,
      "ph": 9733,
      "anlayış": 9734,
      "əsir": 9735,
      "\"▁qəzet": 9736,
      "parlament": 9737,
      "lığını▁": 9738,
      "hakimiyyəti▁": 9739,
      "▁Avrop": 9740,
      "55": 9741,
      "ələn,▁": 9742,
      "icra▁": 9743,
      "1999": 9744,
      "yuxarı▁": 9745,
      "-hazırda▁": 9746,
      "tit": 9747,
      "Kubok": 9748,
      "mir▁": 9749,
      "nəfər": 9750,
      "Yax": 9751,
      "i▁həyat": 9752,
      "▁sil": 9753,
      "▁St": 9754,
      "4-cü▁ilin▁": 9755,
      "\n▁\n▁\n▁\n▁": 9756,
      "2–": 9757,
      "məhz": 9758,
      "▁olmuşdur.\n\n": 9759,
      "▁kəndində▁": 9760,
      "Ədəbiyyat▁\n▁": 9761,
      "məsində▁": 9762,
      "işıq": 9763,
      "metod": 9764,
      "▁Mü": 9765,
      ".▁А": 9766,
      "yeganə▁": 9767,
      "Nur": 9768,
      "imzal": 9769,
      "qara▁": 9770,
      ".S": 9771,
      "▁boy": 9772,
      "çök": 9773,
      "gin": 9774,
      "ağız": 9775,
      "müasir▁": 9776,
      "evl": 9777,
      "avr": 9778,
      "Türkiyənin▁": 9779,
      "”▁(": 9780,
      "torp": 9781,
      "u\n▁": 9782,
      "daha▁da▁": 9783,
      "Fran": 9784,
      "nəzərə▁": 9785,
      "çətin": 9786,
      "▁olmuşdur": 9787,
      "150": 9788,
      "Avstral": 9789,
      "eydər▁Əliyev": 9790,
      "əhalisinin▁": 9791,
      "müəyyən": 9792,
      ".B": 9793,
      "örtül": 9794,
      "iad": 9795,
      "Qor": 9796,
      "aqlı▁": 9797,
      "yeri▁": 9798,
      "▁xüsus": 9799,
      "anadan▁olub.▁": 9800,
      "1987": 9801,
      "gec": 9802,
      "lər▁(": 9803,
      "übut": 9804,
      "qardaşı▁": 9805,
      "buc": 9806,
      "ılır": 9807,
      "qalan▁": 9808,
      "44": 9809,
      "yux": 9810,
      "lərin": 9811,
      "İkinci▁Qarabağ▁müharibəsi▁": 9812,
      "▁()▁—▁▁aləminin▁▁dəstəsinin▁▁fəsiləsinin▁▁cinsinə▁aid▁bitki▁növü.\n\nİstinadlar\n\nHəmçinin▁bax": 9813,
      "mühasir": 9814,
      "ılığı▁": 9815,
      "uzan": 9816,
      "ləri\n\n": 9817,
      "obel": 9818,
      "kimi,▁": 9819,
      "dük": 9820,
      "Xəzər▁": 9821,
      "2016-cı▁ildə▁": 9822,
      "▁düz": 9823,
      "XX": 9824,
      "əsi▁\n": 9825,
      "Tarixi▁": 9826,
      "atına▁": 9827,
      "üceyr": 9828,
      "qaldır": 9829,
      "Azərbaycan▁Milli▁": 9830,
      "ologiya": 9831,
      "▁bar": 9832,
      "istor": 9833,
      "2008-ci▁ildə▁": 9834,
      "eyfiyyət": 9835,
      "ərazidə▁": 9836,
      "3-cü▁ilin▁": 9837,
      "paytaxtı▁": 9838,
      "tac": 9839,
      "görkəmli▁": 9840,
      "▁meyd": 9841,
      "ini▁bitir": 9842,
      "ştat": 9843,
      "6-cı▁ilin▁": 9844,
      "68": 9845,
      "▁()▁—▁▁": 9846,
      "67": 9847,
      "Nov": 9848,
      "yəhud": 9849,
      "asil": 9850,
      "şer": 9851,
      "düşmən": 9852,
      "sk▁": 9853,
      "Xalq▁C": 9854,
      "sonradan▁": 9855,
      "turnir": 9856,
      "ett": 9857,
      "janr": 9858,
      "malikdir.▁": 9859,
      "yot": 9860,
      "Rayon▁": 9861,
      "imtina▁": 9862,
      "toplan": 9863,
      "▁İttifaq": 9864,
      "ticarət": 9865,
      "▁qeyd": 9866,
      "üstəm": 9867,
      "kəndi▁": 9868,
      "yaradılmış": 9869,
      "Ümumi▁": 9870,
      "rail": 9871,
      "təlim": 9872,
      "hava▁": 9873,
      "1994": 9874,
      "Gör": 9875,
      ",▁197": 9876,
      "bər▁": 9877,
      "adr": 9878,
      "əlav": 9879,
      "t▁List": 9880,
      "əmər": 9881,
      "1-ci▁": 9882,
      "iley": 9883,
      "atik▁": 9884,
      "ahat": 9885,
      "Həmçinin▁bax▁\n\n": 9886,
      "Plant▁List": 9887,
      "müqay": 9888,
      "Macar": 9889,
      "Xan": 9890,
      "Arx": 9891,
      "əyal": 9892,
      "ur,▁": 9893,
      "▁etmişdir": 9894,
      "cüt": 9895,
      "▁məsaf": 9896,
      "Em": 9897,
      ".▁L": 9898,
      "\n\nD": 9899,
      "dir▁(": 9900,
      "Rum": 9901,
      "diyev": 9902,
      "i)": 9903,
      "▁şəhərində▁": 9904,
      "▁mad": 9905,
      "sonra,▁": 9906,
      ".12.2020-ci▁il▁tarixli▁Sərəncamına▁əsasən▁": 9907,
      "fəq": 9908,
      "Asiy": 9909,
      "5–": 9910,
      "ədəki▁": 9911,
      "rek": 9912,
      "atom": 9913,
      "▁()▁—▁▁▁fəsiləsinin▁▁cinsinə▁aid▁bitki▁növü.\n\n": 9914,
      "ис": 9915,
      "Lənkər": 9916,
      "-s": 9917,
      "oda▁": 9918,
      "adətən▁": 9919,
      "EFA": 9920,
      "işlə": 9921,
      "özünü": 9922,
      "ıd": 9923,
      "yürüş": 9924,
      "andakı▁": 9925,
      "▁hesabı▁ilə▁": 9926,
      "əvvəlcə▁": 9927,
      "i▁—▁": 9928,
      "Bak": 9929,
      "our": 9930,
      "▁Hüs": 9931,
      "VI": 9932,
      "zəl": 9933,
      "körp": 9934,
      "ərazisi▁": 9935,
      "şəbək": 9936,
      "ifayət": 9937,
      "əklik": 9938,
      "Af": 9939,
      "her": 9940,
      "▁ölk": 9941,
      "the▁": 9942,
      "xanın▁": 9943,
      "vəfat▁edənlər\n": 9944,
      "liğ": 9945,
      ".com": 9946,
      "TV": 9947,
      "idi.▁B": 9948,
      "əlaqədar▁": 9949,
      ",▁\"": 9950,
      "tikint": 9951,
      "dram": 9952,
      "termin": 9953,
      "apon▁": 9954,
      "ılıqlı▁": 9955,
      "irəli▁sür": 9956,
      "ру": 9957,
      "ələdiyy": 9958,
      "enerj": 9959,
      "oloj": 9960,
      "una▁görə▁də▁": 9961,
      "şir": 9962,
      "institut": 9963,
      "ologiyası▁": 9964,
      "ə▁bilər": 9965,
      "idilər": 9966,
      "sə,▁": 9967,
      "Mər": 9968,
      "ae": 9969,
      "ABŞ-nin▁": 9970,
      "Naxçıvan▁M": 9971,
      "ney": 9972,
      "mik": 9973,
      "İki▁": 9974,
      "isi,▁": 9975,
      "\nD": 9976,
      "əkar": 9977,
      "etmək▁üçün▁": 9978,
      "Neft": 9979,
      "əsinə▁aid": 9980,
      "ərazi▁bütövlüyünün▁": 9981,
      "bəri▁": 9982,
      "əliyev": 9983,
      "İstinadlar\n\nXarici▁keçid": 9984,
      "örfəz": 9985,
      "fevr": 9986,
      "ası▁(": 9987,
      "pill": 9988,
      "Be": 9989,
      "▁qadın": 9990,
      "suz": 9991,
      "malik▁": 9992,
      "3.": 9993,
      "▁biki▁": 9994,
      "tikil": 9995,
      "təzy": 9996,
      "Sar": 9997,
      "ahət": 9998,
      "i▁və▁ya▁": 9999,
      "ская▁": 10000,
      "out": 10001,
      "Təl": 10002,
      "dı.▁Bu▁": 10003,
      "-dir.▁": 10004,
      "id▁": 10005,
      "2006-cı▁il▁məlumatına▁görə▁": 10006,
      "bəstəkar": 10007,
      "maddə": 10008,
      "ittifaq": 10009,
      "zərb": 10010,
      "rey": 10011,
      "arz": 10012,
      "erk": 10013,
      "düzəl": 10014,
      "pis": 10015,
      "məhkəm": 10016,
      "xilas": 10017,
      "hökmdar": 10018,
      "qan▁": 10019,
      ",▁P": 10020,
      "ayan▁": 10021,
      "ordusunun▁": 10022,
      "ürcü▁istiqamətində▁yerləşir.▁S": 10023,
      "daxildir.▁": 10024,
      "inam": 10025,
      "▁Əl": 10026,
      "bayr": 10027,
      "əsaslan": 10028,
      "tez-tez": 10029,
      "ğıc": 10030,
      "diyi▁üçün▁": 10031,
      "inzibati▁ərazi▁vahid": 10032,
      "ur▁və▁": 10033,
      "xəstə": 10034,
      "bac": 10035,
      "nad": 10036,
      "▁məsəl": 10037,
      "müvaf": 10038,
      "Xaç": 10039,
      "ilər▁": 10040,
      "özü▁": 10041,
      "ress": 10042,
      "bağlan": 10043,
      "başlad": 10044,
      "oslav": 10045,
      "urd": 10046,
      "▁yanvar": 10047,
      "siya▁": 10048,
      "ırlar": 10049,
      "roviz": 10050,
      "io▁": 10051,
      "mam": 10052,
      "ənlik": 10053,
      "bir▁hiss": 10054,
      "▁qəz": 10055,
      "anlarının▁": 10056,
      "dəstəkl": 10057,
      "\n\nB": 10058,
      "olması▁": 10059,
      "▁müəll": 10060,
      "mürəkkəb": 10061,
      "▁sır": 10062,
      "2006-cı▁il▁məlumatına▁görə▁kənddə▁": 10063,
      "Mus": 10064,
      "fakt": 10065,
      "urdu": 10066,
      "özəl": 10067,
      "www": 10068,
      "AMEA": 10069,
      "kor": 10070,
      "azil": 10071,
      "yaşamış": 10072,
      "oğlu,▁": 10073,
      "ustafa▁": 10074,
      "men": 10075,
      "səfər": 10076,
      "▁torpaq": 10077,
      "ələri▁tərəfindən▁": 10078,
      "ерб": 10079,
      "▁çağırış": 10080,
      "ötür": 10081,
      "▁olduq": 10082,
      "Universit": 10083,
      "Əvvəl": 10084,
      "▁mövcud": 10085,
      "jissor": 10086,
      "),▁\"": 10087,
      "ных▁": 10088,
      "▁с": 10089,
      "Oğ": 10090,
      "\n▁K": 10091,
      "dət": 10092,
      "karyer": 10093,
      "nın▁": 10094,
      "ollec": 10095,
      "-nun▁": 10096,
      "geniş▁yay": 10097,
      "hərbi▁hiss": 10098,
      "esi▁": 10099,
      "▁yağ": 10100,
      "ədir": 10101,
      "uluq": 10102,
      "vər": 10103,
      "ərbi▁xidmət": 10104,
      "islam": 10105,
      ".▁Mü": 10106,
      "ayət▁": 10107,
      "ədəbi▁": 10108,
      "http://": 10109,
      "üll": 10110,
      "edib.\n\n": 10111,
      "Dər": 10112,
      "iel": 10113,
      "andart": 10114,
      "▁cənub": 10115,
      "Plant▁List▁saytında": 10116,
      "www.": 10117,
      "mələri▁": 10118,
      "döyüşlərdə▁": 10119,
      "lider": 10120,
      "1993": 10121,
      "1990": 10122,
      "elmi-": 10123,
      "Pal": 10124,
      "dəb": 10125,
      "nyaz": 10126,
      "ova,▁": 10127,
      "işləd": 10128,
      "\"▁k": 10129,
      "həyat▁yol": 10130,
      ";\n": 10131,
      "mas": 10132,
      "İsrail": 10133,
      "Liv": 10134,
      "▁müqav": 10135,
      "yaradıl": 10136,
      "park": 10137,
      "%▁": 10138,
      "un,▁": 10139,
      "▁kiş": 10140,
      "Art": 10141,
      "güclü▁": 10142,
      "amerik": 10143,
      ". —▁": 10144,
      "-cu▁ilin▁": 10145,
      "ino": 10146,
      "müsəlman▁": 10147,
      "insanın▁": 10148,
      "qalib▁": 10149,
      "avad": 10150,
      "ipp": 10151,
      " mm": 10152,
      "Hazırda▁": 10153,
      "Moskva▁": 10154,
      "r▁": 10155,
      "çıları\n": 10156,
      "yetiş": 10157,
      "imal▁": 10158,
      "▁su": 10159,
      "2,": 10160,
      "iyyətə▁": 10161,
      "təsadüf": 10162,
      "▁şirk": 10163,
      "nüfuz": 10164,
      "ərəy": 10165,
      "aiz": 10166,
      "Şamax": 10167,
      "Xəl": 10168,
      "a:▁": 10169,
      "▁düymə": 10170,
      "maları▁": 10171,
      "nəzəriyy": 10172,
      "nor": 10173,
      "olmayan▁": 10174,
      "2,▁": 10175,
      "Ter": 10176,
      "dünyada▁": 10177,
      "Əbdül": 10178,
      "rəy": 10179,
      "Mərkəz": 10180,
      "mükafatı▁": 10181,
      "yüz": 10182,
      "xatır": 10183,
      "model": 10184,
      "95": 10185,
      "yed": 10186,
      "dadır.▁": 10187,
      "2007-ci▁ildə▁": 10188,
      "▁kils": 10189,
      "▁yat": 10190,
      "▁futbol": 10191,
      "imzalan": 10192,
      "çərçiv": 10193,
      "ölkədə▁": 10194,
      "Oy": 10195,
      "əhər": 10196,
      "▁mil": 10197,
      "köçürül": 10198,
      "gənd": 10199,
      "əsində,▁": 10200,
      "yönəl": 10201,
      "əhəng": 10202,
      "şam": 10203,
      "avənd": 10204,
      "andar": 10205,
      "olduğ": 10206,
      "▁Yay▁Olimpiya▁Oyunlarında▁": 10207,
      "▁nömrəli▁": 10208,
      "isiya▁": 10209,
      "▁düymə)▁ölçülü▁▁vasitəsilə▁": 10210,
      ".\"": 10211,
      "iql": 10212,
      "ortaya▁": 10213,
      "inkişaf▁etdir": 10214,
      "işlər": 10215,
      "▁qarş": 10216,
      "qoyulmuş": 10217,
      "Günəş": 10218,
      "▁cild": 10219,
      "çiləri▁": 10220,
      "ən▁çox": 10221,
      "ala▁": 10222,
      "üsü": 10223,
      "abrda▁": 10224,
      "cuq": 10225,
      "ской▁": 10226,
      "illət": 10227,
      "adıq": 10228,
      "əvv": 10229,
      "qayd": 10230,
      "dəvət": 10231,
      "ikanın▁": 10232,
      "Krım": 10233,
      "ziyarət": 10234,
      "Tom": 10235,
      "madan▁": 10236,
      "s.▁": 10237,
      "önəm": 10238,
      "Zeyn": 10239,
      "vat": 10240,
      "anası▁": 10241,
      "uqal": 10242,
      "ena▁": 10243,
      "i.\n▁": 10244,
      "ələri,▁": 10245,
      "amac": 10246,
      "Lit": 10247,
      "Paş": 10248,
      "əlaqədar": 10249,
      "Azərbaycan▁Xalq▁C": 10250,
      "E.": 10251,
      "NS": 10252,
      "də▁olan▁": 10253,
      "şəhristanı▁ərazisinə▁daxil▁olan▁kənd.\n\nƏhalisi▁\n2006-cı▁il▁məlumatına▁görə▁kənddə▁": 10254,
      "a)": 10255,
      ",▁196": 10256,
      "əcm": 10257,
      "təqa": 10258,
      "\nK": 10259,
      "adol": 10260,
      "imp": 10261,
      "İsgənd": 10262,
      "nümayəndəsi▁": 10263,
      "▁deputat": 10264,
      "texniki▁": 10265,
      "hər▁iki▁": 10266,
      "Qasım": 10267,
      "Yunan": 10268,
      ".▁В": 10269,
      "edici▁": 10270,
      "ələri▁ilə▁": 10271,
      "Ek": 10272,
      "axış": 10273,
      "layan▁": 10274,
      "Tibb": 10275,
      "terror": 10276,
      "Bur": 10277,
      "Şuşa▁": 10278,
      "Fransada▁": 10279,
      "lin▁": 10280,
      "ко": 10281,
      "eft▁": 10282,
      "eyten": 10283,
      "Rəh": 10284,
      "dır,▁": 10285,
      "siyahısı\n\n": 10286,
      "püter": 10287,
      "Ens": 10288,
      "Oper": 10289,
      "sədri▁": 10290,
      "ıdır.\n\n": 10291,
      "qubern": 10292,
      "İngiltərə▁": 10293,
      "ma,▁": 10294,
      "iflis": 10295,
      "indi▁": 10296,
      "ilikdə▁": 10297,
      "160": 10298,
      "stant": 10299,
      "▁yeni▁": 10300,
      "Rusiya▁Feder": 10301,
      "heykəl": 10302,
      "esk": 10303,
      "tərcümə▁": 10304,
      "4.": 10305,
      "qu": 10306,
      "ем": 10307,
      "otur": 10308,
      "rac": 10309,
      "eyv": 10310,
      "ıb,▁": 10311,
      "Azərbaycanın▁ərazi▁bütövlüyünün▁": 10312,
      "For": 10313,
      "vil": 10314,
      "▁il▁": 10315,
      "May": 10316,
      "yerdə▁": 10317,
      "(ölümündən▁sonra)\n▁▁(": 10318,
      "fəxri▁": 10319,
      "istifad": 10320,
      "müzak": 10321,
      "Var": 10322,
      "sülh": 10323,
      "2010-cu▁ildə▁": 10324,
      "9–": 10325,
      "2015-ci▁ildə▁": 10326,
      "▁şər": 10327,
      "ric": 10328,
      "idir,▁": 10329,
      "ma▁və▁": 10330,
      "müsabiq": 10331,
      "го▁": 10332,
      "dərc": 10333,
      "ardıcıl": 10334,
      "XX▁əsrin▁": 10335,
      "ələri\n": 10336,
      "vasitə": 10337,
      "übh": 10338,
      "iyasını▁": 10339,
      "-cü▁il▁": 10340,
      "u▁—▁": 10341,
      "sahəsində▁": 10342,
      "yaşayış▁məntəq": 10343,
      "▁tər": 10344,
      "təyin▁olun": 10345,
      "Kommunist": 10346,
      "sahəsi▁": 10347,
      "▁Abbas": 10348,
      "Azad": 10349,
      "1/": 10350,
      "isini▁": 10351,
      "bab": 10352,
      "Alt": 10353,
      "Şəhər▁": 10354,
      "▁gün": 10355,
      "alara▁": 10356,
      "cinayət": 10357,
      "omin": 10358,
      "Fr": 10359,
      "yaşam": 10360,
      "▁Mar": 10361,
      "▁ABŞ": 10362,
      "lil": 10363,
      "anç": 10364,
      "дж": 10365,
      "ov▁adına▁": 10366,
      "7-": 10367,
      "içərisində▁": 10368,
      "▁gün▁": 10369,
      "XIX▁əsrin▁": 10370,
      "4–": 10371,
      "təzyiq": 10372,
      "XVI": 10373,
      "Gen": 10374,
      "sa,▁": 10375,
      "ки": 10376,
      "har": 10377,
      "üca": 10378,
      ",▁H": 10379,
      "▁və▁bu▁": 10380,
      "Komiss": 10381,
      "növü.\n\nİstinadlar▁\n\n": 10382,
      "rəqib": 10383,
      "maqla,▁": 10384,
      "ork▁": 10385,
      "keçən▁": 10386,
      "▁türk▁": 10387,
      "1978": 10388,
      "məbəd": 10389,
      "lığına▁": 10390,
      "inar": 10391,
      "azı▁": 10392,
      "Aleksandr": 10393,
      "▁dair": 10394,
      "ith": 10395,
      "od▁": 10396,
      "ur▁": 10397,
      "halda▁": 10398,
      "zəngin▁": 10399,
      "heç▁bir▁": 10400,
      "təşkil▁edir.\n\n": 10401,
      "qorx": 10402,
      "irdi.\n\n": 10403,
      "XIX▁əsr": 10404,
[...]
